@00100000
09 1A 0E 21 EF DF FE C5 F8 0E 17 02 14 E8 DC 03 
D7 03 F0 04 FB 03 01 FA 00 F1 06 E4 F5 35 0D 05 
EA 13 1B EC 09 DA 33 CA 1D ED 35 FE 14 36 1E B7 
0E 3A 19 E3 D9 10 02 06 01 06 07 02 02 04 00 02 
09 06 04 07 05 03 06 02 F9 FB FD F2 EE F2 FC FA 
F8 07 08 00 16 19 0D 0E 11 0B F9 FA 01 EE ED F7 
F3 F0 F7 FF FE 00 FC FA FD FE FD FE CD B0 CF 10 
FE 04 31 42 27 CA B2 D7 08 11 04 28 47 1E E4 C9 
EB 0D 09 04 15 26 14 7F 15 A1 70 E9 90 35 EA 81 
B6 EE 2E EE 01 3D FF 0D 25 A3 F6 2A 9F 0F 4D D1 
1C 5D 32 6D 0E FA 1D CE D5 CB C8 1D 61 04 FE 2D 
D6 DF D9 CD 11 2E 0F F5 0F F2 EA E2 ED F2 D7 0D 
F4 C0 F9 08 07 FF 0E DE 0D 01 CB FE FA 08 F6 0A 
F4 0F FB CF 02 FE 0A F1 D1 0B 45 D7 A7 6D 19 A7 
30 F5 F8 27 10 97 3F 4F B9 FD 0C FE F6 22 D1 FA 
40 F1 DE D2 F4 2D BE FD 45 D1 13 2D D9 F8 25 C1 
FD 3E D8 14 1D E8 01 15 D7 05 24 E0 14 12 28 40 
26 FC 00 FF DB C8 D4 22 3E 1D FA 00 01 E0 CB DC 
15 25 0F FE 05 05 EA DC EA 27 01 D7 42 EF C8 2D 
FC E1 2A 02 D4 43 F1 C4 22 FF E5 1A 08 E1 2E FB 
D3 1B 04 E3 EF EE EB EA E3 E9 F8 E3 F8 0C 0F 00 
09 06 04 08 FD 06 0A 12 08 0A 0D 11 0A 09 12 0E 
18 0F EB BB C1 08 22 3A 13 23 19 EB B8 BA 04 1E 
34 11 19 12 F6 D2 D0 FF 0A 1F D0 BA DC 0B FF FE 
2B 45 24 DB C0 E3 10 02 01 1C 3B 17 E4 D3 E9 0F 
04 01 15 2A 12 01 07 04 F7 F5 01 FF F3 F9 F6 F4 
EC F1 EE F9 F6 EE F7 0F 12 01 12 1A 15 0D 14 11 
