@00000000
01 01 FF FF 01 00 00 00 00 00 00 FF 00 FF 01 00 
01 00 00 01 FF 00 00 00 00 00 00 FF FF FF 00 01 
01 00 FF 01 01 01 00 01 FF 01 FF 01 00 01 01 00 
00 00 FF 01 01 FF 01 FF 00 00 01 01 01 FF 00 FF 
01 FF FF 01 01 01 01 FF 01 01 FF 00 01 01 01 00 
00 00 00 FF 01 00 01 00 01 00 FF FF 00 01 FF 00 
01 00 01 01 00 00 01 00 00 00 01 00 FF FF FF 01 
00 00 00 FF 00 FF 00 00 00 01 00 FF 00 01 FF 00 
00 FF FF 01 00 00 00 FF 01 01 01 FF 01 01 FF 00 
01 00 00 00 01 FF 01 FF 01 00 00 FF 00 01 01 FF 
01 FF 00 00 01 01 01 01 01 01 FF 00 01 FF FF 01 
01 00 FF 00 01 FF 01 00 01 00 FF FF FF 01 00 00 
FF 01 01 01 01 01 01 01 00 FF 00 01 00 01 01 00 
00 FF FF 00 00 00 FF 00 FF FF 01 FF FF 00 01 FF 
FF 00 00 00 00 00 00 FF 00 FF FF 00 01 FF FF 01 
00 FF 00 FF 00 00 00 00 FF FF FF 00 FF 01 01 FF 
01 FF 01 00 01 FF 00 00 00 FF 01 00 FF 01 00 01 
00 01 01 FF 01 00 01 01 01 FF FF 01 FF 01 00 01 
00 FF FF 00 01 FF FF 00 FF FF 01 00 FF 01 FF 01 
00 FF FF 00 00 01 00 FF FF 00 00 FF 01 01 FF 00 
01 00 01 01 00 FF FF 01 00 00 00 01 FF 01 00 01 
01 00 00 00 00 01 FF 00 01 00 FF 01 FF FF FF FF 
01 FF FF 01 FF 00 00 FF 01 00 01 01 FF 00 01 00 
00 00 FF FF FF FF FF FF 00 FF 01 01 00 FF 00 FF 
00 01 01 01 FF 01 01 FF FF 01 FF 00 00 FF FF FF 
00 00 01 FF 00 01 FF 00 FF 00 FF 00 01 01 00 00 
00 01 00 01 00 00 FF 01 00 FF 00 01 01 FF 00 00 
00 FF 00 FF FF FF 01 FF 01 00 00 00 FF FF 01 01 
01 FF 01 00 00 01 00 FF FF FF FF 01 FF 01 00 01 
01 FF FF 01 FF FF 01 FF 01 00 01 01 00 01 00 01 
00 00 00 01 FF FF FF 01 00 00 01 01 FF 00 01 FF 
01 01 FF FF FF 01 00 01 00 00 01 FF FF 00 01 00 
FF 01 01 00 01 FF FF FF 01 FF FF FF 00 01 FF 00 
00 FF 01 01 FF 00 01 01 01 00 01 FF 00 FF 01 01 
01 01 FF 01 01 01 01 00 01 FF 01 00 01 01 00 FF 
FF FF FF 00 01 FF FF 01 01 01 01 00 01 01 FF 00 
00 01 00 00 00 FF FF 00 00 01 01 FF 01 FF 01 01 
00 FF FF 00 00 FF FF 00 FF 00 FF FF 00 00 FF 00 
FF 00 01 00 FF 00 01 00 FF 01 01 00 00 00 FF FF 
00 01 FF 00 01 00 01 FF 01 01 01 01 00 01 FF 01 
FF FF FF 00 01 FF FF FF 00 FF 01 FF 01 01 FF 00 
00 FF 01 01 01 01 FF 01 FF 01 01 00 01 01 00 00 
00 01 01 FF 00 FF 00 01 FF FF 01 01 00 FF 01 FF 
01 00 01 01 00 00 01 01 FF 01 FF 00 01 01 01 FF 
01 00 01 FF 01 FF FF FF 01 01 00 FF FF FF FF 01 
01 00 00 00 FF 01 FF 00 00 01 01 FF 00 00 01 FF 
00 00 00 FF 01 00 00 00 FF 01 01 01 FF 00 00 00 
FF 00 01 FF FF FF 00 00 01 00 01 00 FF 01 01 00 
FF FF 01 00 01 00 FF FF 00 FF 01 FF 01 01 00 01 
FF FF 01 00 00 FF FF 00 01 01 FF FF 01 FF 01 FF 
00 01 01 00 00 FF 01 FF 00 01 FF FF 01 00 01 FF 
FF 01 00 01 FF 00 01 FF 01 FF 00 01 FF 00 01 00 
FF FF 00 01 FF 00 FF 00 00 FF 00 00 01 00 00 FF 
FF FF 01 FF 01 00 00 01 00 01 00 01 00 01 01 01 
01 FF 01 01 00 01 00 01 FF FF 00 FF 00 FF FF 01 
00 00 01 00 01 01 00 01 00 01 01 FF 00 00 00 00 
01 00 00 FF 00 01 00 00 FF 01 01 00 FF 01 00 00 
00 00 FF 00 00 00 00 FF 00 FF 00 00 FF FF 01 01 
00 00 FF 01 00 01 00 01 00 FF 00 FF 00 FF 00 01 
01 01 00 FF 00 FF FF FF 01 01 00 01 01 00 00 00 
FF 01 00 01 00 FF 00 00 00 01 00 FF FF FF FF 01 
FF 01 FF 00 FF 00 01 01 00 00 01 01 00 FF FF 00 
FF FF FF 01 00 01 00 01 FF FF FF FF 01 00 00 01 
00 00 00 01 FF 01 00 01 00 00 00 01 01 01 00 FF 
FF 01 FF 00 01 01 01 FF FF FF FF 01 00 01 01 FF 
01 00 FF 01 00 01 01 01 00 00 01 FF 00 00 00 00 
FF 00 FF FF 00 FF FF 01 FF 00 00 01 00 01 01 FF 
FF 01 00 01 01 FF 00 00 01 00 01 00 01 FF 01 00 
00 FF 00 FF FF 01 FF 00 00 01 FF 01 00 FF 00 01 
FF 01 00 FF 01 00 00 01 01 FF FF FF FF FF 00 FF 
00 01 00 FF 01 01 00 FF 00 01 00 FF FF 01 01 FF 
00 01 00 00 FF 01 00 FF 00 00 00 01 01 01 01 01 
FF 00 01 FF FF 00 00 01 00 01 FF 00 01 FF 01 FF 
FF 00 00 FF 00 FF 01 01 01 FF 01 01 00 01 00 01 
00 FF 01 01 FF 00 01 00 00 01 FF FF 00 FF 00 00 
00 FF FF 01 FF 01 FF FF FF 01 FF 01 01 00 01 00 
FF FF 00 FF 00 00 00 00 01 01 00 FF 01 FF 00 FF 
00 01 00 01 01 00 00 FF 00 00 FF FF FF FF 01 FF 
00 00 00 01 01 FF FF 00 01 FF 01 FF 00 01 FF 01 
00 01 01 00 00 FF 01 01 00 FF 00 FF FF 00 FF 00 
01 01 01 01 FF FF 01 FF FF 00 FF 01 FF 01 01 FF 
00 01 00 FF 01 00 01 01 00 00 01 FF 01 FF 01 00 
FF 00 01 FF FF 00 00 00 FF 01 00 01 00 FF 01 FF 
01 00 00 FF FF 00 FF 00 FF FF 00 01 FF 00 01 01 
FF 00 01 FF FF 00 FF 00 01 00 FF FF 01 FF 00 01 
01 01 FF 01 00 00 00 00 00 FF 00 01 01 FF 00 00 
01 01 00 01 00 01 01 FF FF 01 00 FF 00 01 FF FF 
FF 00 FF 00 01 01 FF 00 01 00 FF FF 01 FF 00 01 
01 FF FF FF FF 01 01 FF 01 00 00 FF FF 00 00 00 
FF 01 01 01 01 FF FF 00 FF 01 01 01 01 FF 01 00 
00 01 01 01 00 00 01 00 01 01 01 00 00 FF FF 01 
FF FF 01 01 00 00 01 00 FF 00 00 01 FF 00 00 00 
FF 00 FF FF 00 FF 01 FF FF 00 01 01 FF FF 01 FF 
00 00 00 FF 01 FF 01 01 01 00 01 01 01 00 00 00 
FF 01 00 00 FF FF 01 00 00 FF FF 00 00 01 FF 01 
01 00 FF 00 01 01 01 00 00 01 00 00 00 01 FF 00 
01 00 01 FF 01 01 00 01 01 FF 00 FF FF 01 FF 01 
FF 00 01 01 00 01 01 FF 00 FF 01 01 01 01 FF 01 
01 FF 01 01 00 01 01 FF FF 01 00 FF 00 01 00 FF 
FF 00 FF 01 FF 01 FF 01 FF 01 01 FF FF FF FF FF 
01 00 01 FF 00 FF FF 00 01 01 01 FF FF 00 00 FF 
01 01 FF FF 01 00 FF FF 00 FF 00 00 FF 00 00 FF 
01 01 FF FF 01 01 01 00 01 01 01 01 FF 01 00 00 
01 00 00 00 FF 01 00 01 01 01 00 00 01 00 00 01 
FF FF 00 FF FF FF 01 01 FF 01 FF 01 00 00 FF FF 
FF 01 01 00 01 00 00 01 01 01 FF 01 FF FF 00 00 
FF FF 00 00 01 00 FF 01 00 FF 00 01 01 01 00 FF 
01 FF 00 01 01 FF 00 00 01 FF FF 00 FF FF 01 00 
FF 01 01 FF 00 FF FF 01 00 01 FF FF FF 00 00 01 
01 FF 01 00 FF FF 00 FF FF 01 01 FF 01 01 01 00 
00 00 00 00 01 01 FF 00 FF FF 01 00 01 01 FF 00 
01 01 00 FF FF FF FF 00 01 01 01 FF 00 01 00 00 
00 FF 01 00 00 FF FF 01 01 00 FF 01 FF 00 00 01 
00 FF 01 00 FF FF FF FF FF FF FF FF FF 01 01 01 
00 01 00 01 01 00 01 01 FF 01 01 FF 00 00 FF 01 
01 FF FF 01 00 00 01 00 01 FF 01 FF FF 00 01 00 
FF FF 00 00 FF FF FF FF FF 01 01 00 00 FF FF FF 
FF 01 01 01 00 FF 00 FF 00 FF FF 00 FF FF 00 FF 
00 01 00 01 FF FF FF FF 01 01 01 01 01 FF 01 00 
01 FF FF 00 FF 01 00 01 00 01 00 00 FF 01 00 01 
01 00 01 FF 00 01 00 00 FF FF FF FF 01 FF 00 00 
00 01 FF 01 00 01 00 FF FF FF 00 00 FF 00 00 FF 
01 FF 00 00 FF 01 01 FF 00 00 00 FF 01 FF 01 FF 
FF 01 01 01 FF FF FF 00 00 01 FF 00 FF 00 01 FF 
01 FF 01 01 FF 00 00 01 FF FF 01 01 FF 00 01 00 
01 00 00 01 01 00 00 00 00 00 FF 00 FF 00 01 01 
01 00 01 FF 00 FF 01 01 FF 00 01 01 FF 00 FF 01 
00 01 01 00 00 FF 01 FF 00 00 01 00 01 01 00 00 
00 FF 01 FF 01 00 FF 01 00 FF 01 00 01 FF 00 FF 
01 FF 01 00 FF 01 00 01 00 FF 00 FF FF 01 FF FF 
FF FF 00 01 01 01 FF FF 01 01 00 FF FF FF FF FF 
FF FF 00 00 00 FF 00 01 01 FF 00 FF FF 00 FF 00 
00 FF FF FF 01 00 01 FF 00 00 FF 01 01 00 01 01 
FF 00 01 00 01 FF FF 00 00 01 FF 00 FF FF FF 01 
00 01 00 01 FF FF 01 01 00 01 00 FF 00 00 00 00 
FF FF 01 FF 00 00 FF FF FF FF FF 01 00 FF 00 FF 
FF FF 01 00 FF 00 00 FF 00 FF 00 FF 01 01 01 FF 
FF 01 FF FF FF FF 00 01 FF 00 00 01 FF FF 01 FF 
00 01 01 01 00 00 01 FF 01 00 FF 00 00 01 00 FF 
01 00 00 FF FF 01 01 FF 00 FF FF 01 01 01 01 FF 
01 01 01 FF 00 FF FF FF 01 00 00 00 00 FF 01 FF 
01 FF 00 01 FF 00 00 01 FF 00 01 01 01 00 01 00 
00 01 FF FF 01 FF FF 00 00 01 00 FF 01 FF 00 FF 
00 FF 01 01 01 00 01 01 FF 00 01 FF FF 00 00 FF 
00 00 FF 01 FF 00 00 01 FF 01 FF 00 FF 01 00 01 
FF 00 01 01 FF 00 01 FF FF 00 00 00 FF 01 00 FF 
01 01 01 FF FF FF 01 00 FF FF 01 00 FF 00 FF FF 
FF 01 FF 00 00 FF 00 01 FF 01 FF 00 01 01 00 01 
00 FF 01 01 00 FF FF 01 FF 00 FF FF FF 00 FF FF 
00 00 00 FF 01 FF 01 FF FF FF 00 00 01 FF 00 00 
FF 00 FF 01 01 01 01 01 FF FF FF FF 00 FF 01 FF 
FF 00 FF 01 FF 01 01 00 FF FF FF FF 00 01 01 FF 
00 FF 01 FF 01 FF 01 01 FF 01 00 01 FF 00 01 FF 
FF 00 FF 00 FF FF FF 00 01 FF FF FF FF FF FF 00 
FF 00 00 FF 00 00 FF 00 00 01 00 FF FF 01 FF 01 
FF 01 FF 00 01 00 00 00 01 00 FF 01 00 00 01 00 
01 FF 01 00 FF FF 00 00 01 01 00 00 01 FF FF 01 
FF FF 00 01 01 01 01 01 00 FF 01 01 00 00 00 01 
FF 00 FF FF 01 00 01 00 01 01 01 00 01 FF 01 01 
00 FF 01 00 FF 01 FF 00 01 FF 00 01 01 FF 00 01 
00 01 FF 00 01 01 FF 00 00 FF FF 00 00 01 00 FF 
01 01 01 FF 00 FF 00 01 FF 01 00 FF FF 01 FF 01 
01 FF 00 00 00 01 01 01 FF 00 01 01 FF 00 FF 00 
FF 01 00 FF 01 00 01 00 FF 00 00 00 FF 01 01 FF 
FF 00 01 00 00 00 01 00 FF 00 01 00 01 FF FF 00 
FF 00 00 FF FF FF 00 00 00 00 FF 01 00 01 01 00 
FF 00 FF 01 00 01 01 00 00 00 FF 00 00 FF 01 01 
FF FF FF FF 00 01 01 01 00 00 01 01 FF 01 00 01 
00 01 00 FF 01 00 FF FF 01 FF 01 01 01 01 01 FF 
01 FF 00 00 FF 01 00 00 FF 00 01 00 00 FF 00 FF 
01 00 00 00 01 01 01 FF FF 00 FF 01 00 01 FF 01 
FF FF 00 00 01 01 FF FF 00 01 01 FF 01 01 00 01 
FF FF 00 FF 01 00 00 01 00 00 FF 01 00 00 00 01 
00 01 FF 00 FF FF 01 00 00 01 FF 00 01 01 00 01 
01 FF FF 01 01 01 01 FF FF 01 01 01 01 01 00 FF 
01 01 FF 01 FF 01 01 00 01 01 01 00 00 00 00 00 
01 FF FF 01 01 01 01 FF FF 01 00 FF 01 01 00 01 
FF 00 00 FF 01 00 01 00 FF 01 00 01 01 FF FF 01 
FF 00 00 FF 01 00 01 FF 00 FF FF 00 FF 00 FF FF 
00 01 00 FF 01 00 01 01 01 00 FF 00 01 00 FF FF 
FF 01 00 FF FF 00 FF 00 00 00 01 01 01 FF 00 FF 
00 01 00 FF 01 00 FF 00 01 FF 01 01 01 FF FF FF 
01 00 FF FF 01 FF 00 00 00 01 00 00 FF 01 FF 00 
FF 00 01 01 FF FF 00 FF 00 00 01 00 00 FF 00 00 
01 01 00 00 FF FF FF 01 01 FF 00 00 01 01 FF FF 
FF FF FF 00 00 00 01 FF 01 01 01 00 FF 00 FF 01 
00 01 01 01 FF 01 01 FF 01 00 00 FF FF 01 FF 00 
FF 00 FF 00 FF 01 00 FF 01 00 01 01 FF FF 01 01 
01 00 01 FF 01 00 00 01 FF FF 01 FF 01 00 FF FF 
FF FF 00 FF FF 00 00 FF FF 01 FF FF 01 01 FF 01 
00 FF FF 00 01 01 FF FF 01 00 00 FF FF 00 FF FF 
01 FF 00 FF 01 FF FF 01 FF 00 FF 01 FF 00 01 01 
01 FF FF FF FF 01 FF FF 00 00 00 00 00 01 00 FF 
01 FF 00 00 00 00 00 00 FF 01 00 FF 00 00 00 01 
01 00 01 FF 00 01 00 01 00 FF FF 01 01 01 FF 01 
FF 00 00 00 FF FF 00 FF FF 01 01 01 FF FF 00 00 
01 FF 00 00 FF FF 00 00 FF 01 00 01 01 01 01 FF 
00 01 01 00 01 FF FF FF FF 01 01 00 01 00 FF 00 
00 00 FF 00 01 01 FF 01 01 01 00 00 01 01 01 FF 
00 01 01 00 FF FF 00 FF 01 00 01 01 01 01 01 00 
00 01 FF FF 01 00 FF 00 FF 01 00 FF 01 00 FF FF 
00 00 00 00 00 00 01 01 01 FF 00 FF FF FF 01 FF 
00 FF FF FF 01 01 01 FF 00 00 00 00 01 01 00 FF 
00 FF 01 00 00 00 FF 01 01 01 FF FF 00 01 FF 01 
FF 00 01 01 FF 01 00 01 FF FF FF 01 FF 01 FF FF 
00 01 00 FF 01 01 01 00 01 01 01 FF 01 FF 01 FF 
01 01 00 FF 00 01 00 01 FF 00 01 00 01 FF 00 FF 
FF FF FF 01 01 00 01 01 FF 00 01 FF FF 01 01 01 
01 FF FF FF FF 00 FF FF 00 00 00 00 01 FF 01 01 
00 01 FF 00 00 FF 00 FF 01 00 00 01 00 FF 01 FF 
FF FF 01 FF 01 01 FF 00 00 FF 01 FF 00 00 00 01 
01 00 00 FF 00 01 FF 00 00 01 00 01 01 FF 00 00 
00 FF 00 00 FF FF 01 01 00 FF FF 01 00 00 01 FF 
FF 00 00 01 FF 01 00 01 01 01 FF FF FF 00 00 01 
01 FF 00 FF 00 00 01 01 00 00 01 FF 01 01 00 FF 
FF FF 01 00 FF 00 01 FF 00 01 FF 01 00 01 01 00 
FF 00 00 00 01 01 01 01 FF 00 FF 01 FF 00 FF 00 
FF 00 FF 00 01 01 00 00 01 01 00 00 00 FF 01 01 
01 FF 00 00 01 00 00 FF 01 00 00 FF 00 00 01 00 
FF 01 01 FF 01 00 01 00 FF FF 01 FF 00 01 01 FF 
00 00 01 00 01 01 01 FF FF FF 00 01 01 FF 00 FF 
FF 00 FF FF FF FF 01 00 00 01 00 01 FF 01 FF 00 
00 FF 01 00 01 00 01 00 01 FF 00 01 FF FF 01 00 
01 FF 01 01 FF 01 00 00 00 FF 00 01 01 01 FF 00 
FF FF FF FF 01 01 01 01 01 00 00 FF 00 FF 01 00 
FF 00 00 00 FF 01 FF 01 FF 00 01 FF 00 01 01 00 
FF 01 01 FF 01 01 01 01 00 FF FF FF 00 01 00 00 
00 00 01 01 FF FF 00 00 00 00 FF FF 01 01 00 01 
01 01 FF 01 00 01 01 01 FF 01 FF 00 01 01 FF 00 
FF 01 FF 01 FF 01 00 00 01 00 01 01 00 01 01 00 
00 FF 00 01 FF FF FF 00 FF 00 01 FF FF FF 00 01 
FF 01 01 00 FF FF FF FF FF 00 01 01 FF 00 00 00 
00 01 00 01 FF 00 00 00 01 00 01 00 01 00 FF 00 
01 01 01 01 FF FF 01 00 00 01 FF 01 FF 01 FF 01 
01 01 01 FF 00 FF 01 00 00 00 01 00 00 FF 01 FF 
FF 01 FF 00 FF FF FF FF 01 00 01 01 00 00 01 00 
FF 00 01 00 01 00 FF 00 00 FF FF 01 FF FF FF 00 
FF 00 FF FF 00 FF 00 FF 01 00 FF 00 FF FF 01 FF 
01 01 01 01 01 00 00 FF 00 00 FF FF 01 FF 00 01 
00 00 FF FF 01 01 00 01 00 00 FF 00 01 00 01 01 
FF 01 00 01 FF 01 FF 01 00 FF 01 FF 00 FF 01 FF 
01 01 FF 00 01 01 00 00 00 01 01 FF 00 01 FF 00 
01 00 01 01 00 FF 00 01 01 00 01 FF 01 01 01 01 
FF FF 00 01 FF FF 00 00 FF 00 01 00 00 FF FF FF 
01 FF 01 01 00 01 00 FF FF 01 00 FF 01 FF FF 01 
01 01 FF 01 FF 01 00 FF FF FF 01 01 00 FF 01 01 
00 FF 00 FF FF FF 00 FF FF 01 01 00 00 01 FF FF 
01 00 FF 01 FF 00 FF 01 00 01 00 00 00 00 00 01 
01 FF FF 01 00 00 FF 01 00 FF FF FF FF 00 00 01 
FF 00 FF 00 01 FF FF 01 00 01 00 01 00 01 01 00 
01 01 FF FF 00 00 FF FF 01 00 00 FF 00 01 FF 01 
00 FF FF FF 01 00 FF 00 FF 00 00 01 FF FF FF FF 
FF 00 01 01 01 FF 01 01 01 FF FF 00 00 00 FF 01 
01 FF FF 00 01 01 FF 01 FF 00 01 01 01 01 01 FF 
FF 01 01 00 FF FF FF FF FF 01 01 01 FF 01 01 01 
01 00 01 FF FF 01 01 FF 01 FF 01 00 01 FF 01 00 
FF 01 01 00 01 FF 01 00 01 00 FF FF FF FF 00 00 
00 00 00 01 00 00 01 FF 00 FF FF 01 00 01 FF 01 
00 FF 00 01 FF FF FF 00 01 FF 01 01 00 FF 00 FF 
00 01 01 FF 01 FF 00 FF 00 00 01 FF FF FF 01 FF 
FF FF FF 01 00 FF 00 00 00 FF 00 00 01 FF 00 FF 
FF 01 00 01 01 FF 00 00 00 00 00 FF 01 FF FF FF 
00 00 FF FF 00 00 01 FF FF FF 00 01 FF FF FF 01 
01 01 01 01 01 FF FF FF FF 00 FF FF 00 00 FF FF 
01 01 00 00 00 FF 01 00 00 FF FF 01 00 01 01 00 
00 01 FF FF 01 FF 00 FF 01 FF FF 01 00 01 FF 01 
00 01 00 01 FF FF 00 00 01 01 01 FF 00 00 01 01 
00 FF FF 01 01 01 01 00 FF FF FF 00 01 00 00 FF 
00 FF FF 00 00 00 00 00 01 00 FF 00 01 01 01 01 
01 FF 00 01 FF FF 00 FF FF 01 01 01 00 00 FF 01 
01 00 01 01 FF FF FF FF 00 FF FF 00 FF 01 FF 00 
01 00 FF FF FF 01 FF FF 01 FF 00 FF FF 01 00 01 
00 00 01 FF 00 FF FF FF 00 FF 00 FF FF FF 00 FF 
01 00 00 01 01 01 00 00 FF 01 01 00 01 00 00 00 
01 00 00 00 01 01 00 FF FF 00 00 FF 01 01 00 00 
01 FF 01 00 FF FF FF 00 FF 01 01 01 01 FF 00 00 
01 01 FF 00 01 01 FF FF FF 00 00 01 00 00 01 00 
00 00 01 01 00 01 FF 00 01 FF 00 00 01 FF 00 00 
FF 01 FF 01 00 FF FF 01 01 FF 01 FF 00 00 01 FF 
01 01 FF FF 01 00 01 01 01 01 00 00 01 FF FF 01 
01 FF FF 00 00 FF 00 00 00 FF 01 01 01 01 FF 00 
01 00 FF 01 01 FF 00 01 01 FF 00 00 00 01 01 FF 
01 01 01 01 FF FF 00 01 00 FF 01 FF FF FF 01 FF 
00 FF 01 01 00 00 00 FF 01 FF FF FF FF 01 01 FF 
00 00 01 01 01 FF 00 00 01 01 01 FF 01 00 FF 00 
01 FF 00 FF 01 01 00 01 FF 00 01 00 00 01 01 FF 
00 00 FF 00 FF 01 01 01 00 00 01 00 FF 00 FF FF 
01 01 00 01 00 FF 00 FF 01 00 00 00 00 FF 00 FF 
FF 01 00 FF 01 00 01 00 FF 01 FF FF 00 00 01 00 
FF FF FF FF FF 01 00 FF FF FF 01 01 00 00 01 01 
00 00 01 00 FF 01 FF FF 01 00 01 00 FF 00 01 01 
01 FF 01 FF FF FF 00 00 FF 00 00 01 01 00 00 FF 
00 00 01 00 00 FF FF 00 01 FF FF FF 01 FF 01 00 
FF 00 01 FF 01 FF 01 00 00 FF FF 01 FF FF FF 00 
01 FF FF 00 00 FF FF 00 00 FF 00 FF 00 00 01 00 
FF 00 01 00 FF 00 01 01 FF FF 00 FF FF 01 01 00 
FF 01 FF 01 FF FF FF 00 00 01 FF 01 00 01 00 01 
00 00 FF 01 FF FF FF 00 FF 00 00 01 00 FF FF 01 
00 00 00 00 00 01 FF FF 01 FF FF FF FF 00 FF FF 
FF 00 FF FF 01 FF FF FF FF 00 FF 01 FF 00 01 00 
01 00 FF 00 01 00 00 00 01 00 01 FF FF 00 FF 00 
FF 00 01 FF 01 01 00 01 01 00 01 FF 01 01 00 00 
00 01 01 FF FF 00 01 FF FF 01 00 FF 00 01 00 00 
00 00 01 00 00 FF FF FF 00 FF FF 00 FF 01 FF 01 
01 FF 01 01 00 01 00 00 01 01 01 00 01 00 FF 00 
FF FF 01 00 00 FF 01 00 01 01 01 01 01 FF 00 00 
FF 01 00 FF 01 01 01 01 01 01 FF 01 00 FF FF 00 
00 01 FF FF FF FF 01 01 01 00 01 00 01 00 FF 00 
00 01 01 FF 00 00 FF 00 FF FF FF FF 01 FF 01 FF 
FF FF 00 00 FF FF 00 00 FF 00 FF FF FF 00 00 01 
FF 00 FF 01 FF 00 FF 00 01 FF 00 01 00 00 00 01 
01 01 00 FF 00 FF 01 01 01 FF 01 01 01 01 01 FF 
FF 00 01 FF FF FF FF 01 00 00 FF 00 FF 00 00 FF 
00 01 00 01 01 00 00 00 01 01 01 00 00 01 01 01 
FF 01 FF FF FF FF 00 01 01 00 00 FF 01 FF 00 00 
01 01 00 FF 01 FF 01 00 FF 01 FF 00 01 FF 00 01 
01 01 00 FF FF FF 00 FF 00 01 00 00 01 FF 01 FF 
FF 00 FF 01 FF FF 00 FF FF 01 01 FF 01 00 01 FF 
00 00 00 01 00 01 01 FF 01 00 00 00 01 01 00 01 
FF 01 01 FF FF 00 00 00 FF 00 00 FF FF 00 FF 00 
FF 01 FF 01 00 FF FF 00 00 01 FF 00 00 01 00 FF 
FF 00 00 00 01 01 01 01 00 00 FF 00 FF 00 FF 00 
00 00 00 FF 01 01 01 00 00 FF FF FF 01 01 00 01 
FF 01 FF 01 FF FF 01 00 01 01 00 FF FF 01 01 01 
01 FF FF 00 01 FF FF 01 FF FF 01 FF FF FF 00 FF 
FF 01 01 FF FF 00 FF FF 00 00 FF 01 00 FF FF FF 
00 FF 01 01 00 FF 00 00 00 00 00 01 00 01 01 00 
FF FF FF FF 00 FF FF FF 00 01 00 FF FF 00 00 00 
01 FF FF FF 00 01 01 FF FF 00 01 01 01 01 01 01 
01 01 01 01 01 FF 01 00 FF 00 00 FF FF FF FF 01 
00 FF FF 01 00 01 FF 00 00 FF 00 FF FF FF 01 FF 
01 01 01 00 FF FF 01 00 00 00 00 01 01 01 01 00 
FF FF 00 00 FF 01 FF 01 FF 00 FF 00 00 FF 01 FF 
FF 00 01 00 00 01 FF FF 00 01 FF 00 01 01 FF FF 
FF 00 01 01 00 01 00 01 00 01 FF FF FF FF 01 00 
01 00 01 FF 01 FF 00 00 01 01 01 00 FF FF 00 FF 
00 FF 01 00 00 01 00 01 01 01 01 01 FF 01 FF 01 
00 FF FF 00 FF FF 01 00 FF 01 01 FF 01 01 00 00 
01 00 01 FF FF 00 FF 01 00 00 FF 01 FF 00 01 01 
01 FF FF FF FF FF 00 01 01 00 01 01 00 FF 00 FF 
FF 00 01 00 00 FF 01 01 01 01 01 FF FF 00 FF FF 
00 00 00 FF 01 FF 01 01 01 00 01 FF FF 00 01 FF 
FF 01 01 01 01 00 00 01 FF FF FF 01 01 FF 01 FF 
01 00 00 01 01 FF 01 01 FF 01 FF FF 00 01 00 01 
00 FF 00 00 FF FF 00 00 FF 01 FF FF FF 00 00 FF 
FF FF FF FF 00 FF FF 00 FF FF 01 00 FF FF FF 00 
01 00 FF FF 01 01 00 FF 01 FF FF 01 00 00 00 01 
00 00 FF FF FF FF 01 FF 00 01 01 00 01 01 FF 01 
00 FF 01 FF FF 01 FF FF 01 00 FF 00 01 01 FF 01 
01 00 FF 01 00 01 FF FF 00 01 00 01 00 01 01 FF 
00 FF 00 00 01 01 01 01 FF 00 FF FF 00 00 01 FF 
FF 01 FF 01 01 FF FF 00 01 01 FF 00 01 00 01 FF 
00 FF 01 FF FF FF 01 FF 01 FF 00 FF 00 00 01 01 
01 01 FF 01 00 FF FF 00 FF 01 FF 01 FF FF FF 00 
01 FF 01 01 00 00 00 FF 01 01 00 FF 00 FF 00 FF 
00 00 01 FF 01 00 00 01 00 01 FF 00 FF FF FF 01 
00 01 01 FF 00 FF FF FF FF FF 00 01 00 01 FF 01 
00 00 FF FF FF 01 FF 00 01 00 01 FF 01 01 FF 00 
01 FF 00 FF FF FF 00 01 FF 01 01 01 FF 01 01 00 
00 FF FF 00 FF 00 01 FF 01 01 FF 00 00 01 FF 00 
01 FF 00 FF FF 01 FF 00 FF 01 FF FF FF FF 01 00 
00 01 FF 00 FF FF 01 FF FF 00 01 01 FF 01 00 FF 
01 FF 00 FF 00 01 01 00 01 00 01 01 01 01 00 FF 
FF 01 FF FF 01 FF 01 01 01 00 FF 01 00 00 FF 01 
00 FF FF 01 FF FF 00 01 00 00 FF 00 00 01 FF 00 
00 FF 01 00 00 00 01 00 FF 01 00 01 00 FF 00 01 
FF 00 FF 00 01 01 FF 00 00 00 FF 01 FF FF 00 01 
00 00 00 FF FF 00 00 FF FF 00 FF 01 00 01 00 01 
01 01 FF 00 01 00 00 FF FF 00 FF FF 01 00 FF FF 
01 01 FF FF FF FF 01 00 00 01 FF FF 01 01 01 01 
01 FF FF 00 00 00 01 00 FF 01 01 01 00 FF FF 00 
01 00 FF FF 01 01 00 FF 01 01 00 01 00 FF 00 FF 
00 01 01 01 00 01 00 01 01 00 01 00 01 FF FF 01 
01 00 01 00 FF FF 00 FF 01 FF FF 00 FF 00 01 00 
00 01 00 00 01 FF 00 01 01 FF 00 00 00 01 FF FF 
FF FF 00 00 00 FF 00 FF FF 00 FF 00 00 FF FF FF 
01 01 00 01 FF 01 01 FF 00 00 01 01 FF 00 FF FF 
00 01 01 FF FF FF 00 00 FF 00 FF 01 00 00 01 01 
00 00 00 01 00 00 FF 01 FF 01 FF FF FF 00 00 FF 
FF FF FF 00 00 01 00 01 00 00 00 FF FF FF 01 01 
01 01 01 00 00 01 00 01 00 01 FF FF FF 01 00 01 
01 01 00 00 00 01 FF FF 00 00 01 01 FF 00 01 01 
00 00 00 00 FF FF 00 01 01 00 FF 00 FF 00 00 00 
FF 01 01 FF 01 00 00 FF FF FF 01 FF FF 00 00 01 
FF 01 FF FF FF 00 00 00 FF 00 01 00 00 FF 01 01 
01 FF FF 01 00 01 FF 01 FF FF FF FF FF 00 FF FF 
00 00 01 01 00 FF FF 00 01 FF FF 00 FF 00 00 FF 
00 01 FF FF 00 00 01 01 00 FF FF 01 01 00 FF 00 
FF 01 00 00 01 00 FF 01 00 00 00 01 01 FF FF FF 
01 FF 00 01 01 00 00 01 00 01 00 01 00 00 FF 01 
00 00 FF 00 FF 00 00 00 01 FF 00 FF FF 00 FF 01 
FF 01 00 01 00 FF 01 FF FF 00 01 01 FF FF 00 01 
01 01 FF FF 00 01 01 00 01 FF 00 01 01 01 FF FF 
01 01 FF 00 FF FF 00 00 01 01 00 01 FF 01 01 00 
01 00 00 FF FF 00 00 00 01 FF FF 00 FF 00 01 01 
00 FF 00 01 FF 01 00 FF 01 01 01 00 00 FF 01 FF 
00 FF 00 01 01 01 FF 01 01 01 00 01 FF 00 01 00 
00 FF 00 01 00 01 FF 00 00 01 01 FF FF 00 00 01 
FF 01 01 01 FF FF 01 FF 01 00 FF FF 01 FF 01 00 
01 00 00 00 00 00 FF FF 00 FF 00 FF 01 FF 01 01 
01 01 FF FF FF 01 00 01 00 01 FF FF 01 FF 01 01 
01 00 00 FF FF 01 00 FF 01 FF FF 01 FF 01 FF FF 
01 FF 00 FF FF FF 01 01 01 00 FF 01 01 00 01 00 
01 FF 01 FF FF 00 00 FF 01 00 FF FF 00 FF FF 00 
00 01 00 00 01 01 00 00 FF 01 01 01 00 00 00 FF 
01 FF 00 00 01 01 00 00 00 00 00 FF 00 FF 00 01 
FF 00 01 FF FF 00 01 FF FF 00 FF 01 FF 00 FF 00 
00 01 01 00 FF FF FF 01 01 01 01 00 FF 01 01 FF 
00 00 FF 00 01 00 01 00 FF 01 FF 00 FF 00 01 01 
01 01 FF FF 01 01 01 01 01 FF 00 01 FF FF 01 00 
01 00 FF 00 FF 01 FF FF 01 01 01 01 00 01 00 FF 
00 FF 00 00 01 00 FF 00 00 01 00 01 01 FF FF 00 
01 FF 00 01 FF 01 FF 01 01 FF 01 00 FF FF 01 00 
00 00 FF 00 01 01 FF 00 00 00 FF 00 01 00 FF 01 
00 01 01 01 01 FF 00 00 FF 00 FF FF 01 FF FF 00 
00 FF 01 00 01 FF FF 01 01 FF FF 01 00 00 01 FF 
00 01 01 00 01 00 FF FF 01 01 01 00 01 01 FF 00 
FF 00 01 00 00 01 FF 00 FF 00 00 01 01 FF FF 00 
01 FF FF 01 00 01 FF 00 00 01 FF FF 01 00 00 00 
01 00 01 00 00 01 01 01 00 FF 00 00 00 00 FF 00 
00 00 FF FF FF 00 00 00 00 00 01 00 FF 00 01 01 
01 01 FF 00 01 00 FF FF 01 01 00 00 FF 01 FF 01 
00 01 01 01 00 00 00 01 00 00 00 00 FF 00 00 FF 
FF 01 01 01 FF FF FF 00 FF 01 01 00 01 FF 00 FF 
01 FF FF FF FF 01 FF 00 00 00 01 00 00 FF FF 00 
00 01 01 01 FF 01 FF FF 00 FF 01 00 00 00 01 FF 
01 FF 00 01 FF 01 FF 01 00 FF FF 01 00 FF 00 FF 
FF FF FF 00 01 FF 01 01 00 01 00 FF FF FF FF FF 
01 01 FF 01 00 00 00 FF 01 01 01 00 FF 00 01 01 
01 FF 00 FF 00 FF FF 01 00 00 FF 01 01 00 FF 00 
FF 00 01 01 01 FF FF 01 FF FF 00 00 01 FF FF 01 
00 01 01 FF 01 01 FF 00 00 00 00 01 01 00 00 FF 
01 FF 01 01 00 FF 01 01 00 00 00 00 01 01 FF 00 
00 00 00 01 00 00 FF FF FF 01 FF 01 00 00 FF 00 
01 FF 01 00 01 00 FF FF FF FF 00 FF 01 00 01 00 
01 FF FF 00 01 FF 01 FF FF 01 FF 01 FF 00 00 FF 
FF FF 01 01 FF 00 01 00 00 00 00 FF 01 00 00 FF 
01 00 01 01 FF 00 FF 00 00 00 FF 01 FF 00 00 00 
FF FF FF 00 01 01 01 FF FF 01 01 FF 00 00 00 00 
FF FF 00 00 01 00 01 00 FF 01 00 FF 00 01 01 01 
FF 01 00 00 01 01 00 FF 01 00 00 FF FF FF 00 00 
00 01 01 00 00 01 FF 01 01 01 FF 00 01 FF 00 01 
01 FF FF FF 01 FF FF 00 01 01 FF 01 FF 00 00 00 
01 00 FF FF FF FF FF FF 01 00 01 00 01 00 01 00 
00 FF 00 01 FF FF 00 00 01 00 00 01 FF FF 00 FF 
01 01 FF 00 01 00 00 FF FF FF 00 01 01 FF 00 00 
00 00 FF 01 00 01 00 FF 00 FF FF 01 FF 00 01 FF 
FF FF 00 00 00 FF 00 01 00 FF 00 01 00 FF FF FF 
00 00 FF 01 FF 01 FF 01 FF 00 00 FF 00 FF 00 01 
00 FF FF FF 00 01 FF FF FF 00 01 01 01 FF 01 FF 
00 FF FF FF FF 00 01 FF FF 01 00 00 01 FF 00 00 
00 00 FF 01 00 00 01 00 FF 01 00 FF 01 FF 00 01 
00 01 FF 01 00 FF FF 00 01 01 FF FF FF 00 01 00 
FF FF FF 01 00 FF 00 01 FF 01 01 00 FF FF 00 01 
FF 00 01 01 01 01 00 FF 01 01 00 01 00 FF FF 01 
01 00 01 FF 01 00 01 01 00 00 FF 00 FF 00 00 00 
FF 00 00 FF 00 FF 00 00 FF 01 00 01 FF 01 00 01 
00 00 FF FF FF FF FF 01 FF 00 00 FF FF FF 01 00 
00 FF 01 FF 00 00 01 00 FF 00 FF 00 FF FF 01 01 
00 FF 01 01 FF FF 00 FF 01 FF 00 FF 00 01 01 01 
01 01 00 01 FF 00 FF 00 01 01 FF FF 01 01 FF 00 
01 FF 00 FF 00 FF 01 FF FF 00 01 00 FF 00 01 FF 
00 FF FF 00 01 FF FF 00 FF 00 01 FF FF 01 01 FF 
FF 00 00 00 00 FF FF FF 01 01 01 01 FF 00 FF 00 
01 FF 00 00 01 00 FF 01 01 FF FF FF 01 FF 00 FF 
01 FF FF FF 00 FF 00 00 FF 00 00 00 01 01 FF 01 
FF 01 00 01 00 01 FF FF 01 00 00 01 01 FF 00 00 
FF 00 01 01 00 00 00 01 01 FF FF 00 FF 00 00 FF 
FF FF 00 00 FF 01 01 FF FF 00 01 FF 00 FF 00 FF 
01 FF FF FF 00 01 FF 00 01 00 FF 01 01 01 FF FF 
FF 01 00 FF 00 01 FF 01 FF 00 01 FF 01 FF FF 01 
01 00 FF 00 FF 00 FF FF FF 00 FF 01 FF 00 01 00 
FF 01 01 01 01 00 01 01 01 01 FF 01 FF 00 01 FF 
FF 00 01 FF FF FF 00 FF 00 00 01 00 FF FF FF 01 
FF FF 01 01 00 00 01 00 FF FF 00 01 00 00 01 00 
FF 01 FF FF 01 01 FF FF 00 01 FF 01 FF FF 01 FF 
00 00 FF FF 01 FF 01 00 FF 00 FF 01 FF FF 01 FF 
FF FF FF FF 01 00 00 00 00 01 FF 01 FF FF 01 01 
00 FF 01 01 00 01 FF 01 00 00 00 00 01 00 01 01 
00 FF 00 FF 00 01 01 01 01 FF 01 01 00 FF 00 FF 
FF 01 01 01 01 01 00 00 00 FF FF 00 01 01 00 FF 
FF 01 01 01 01 00 01 00 01 01 00 00 01 FF 01 FF 
FF 00 01 FF 01 FF 00 00 FF 00 01 01 00 01 00 01 
01 FF 00 01 01 00 00 00 FF FF 00 FF 01 FF FF 01 
01 01 00 01 FF 01 00 FF 01 FF 00 00 FF FF 01 FF 
FF FF 01 01 01 00 00 FF 01 01 FF 00 FF FF 00 FF 
FF 01 01 FF FF FF 01 01 01 00 00 01 00 FF FF 00 
01 01 00 00 00 01 01 00 FF 01 01 FF 00 FF 00 00 
FF 01 01 FF FF 01 FF FF FF 01 00 00 00 00 FF FF 
00 01 01 FF 01 00 00 01 01 00 00 00 00 FF 01 01 
FF 01 FF 00 00 00 00 01 00 01 FF FF 00 00 FF FF 
FF 01 00 FF 01 FF FF 01 00 00 FF 01 FF 01 FF FF 
FF FF 00 01 FF 00 01 01 00 FF 01 FF 01 01 00 01 
01 01 FF 01 01 00 00 FF FF 00 00 FF 01 01 00 01 
FF FF 01 FF 01 00 01 00 01 00 00 01 00 FF 01 00 
FF FF FF FF 01 FF 00 01 00 FF 00 00 01 FF FF FF 
FF FF FF FF 01 00 00 00 01 FF FF 01 FF 00 FF 00 
00 00 01 FF 00 00 FF 00 01 00 01 00 00 00 01 FF 
01 00 FF 00 01 01 00 00 01 01 FF 00 FF 00 FF 01 
00 01 01 FF 00 00 00 FF 01 01 FF 01 00 01 01 FF 
FF 01 01 01 01 00 01 01 00 FF FF 01 FF 00 01 00 
FF 01 01 FF FF 01 FF 00 00 FF FF 01 00 01 FF 00 
01 01 01 00 00 01 FF FF 01 01 01 FF FF 01 00 01 
01 01 01 FF 00 01 00 FF 00 01 FF 01 01 FF 00 00 
FF 00 FF 01 FF 01 01 00 01 FF 00 01 01 00 01 01 
FF 00 FF 00 01 01 00 00 01 01 00 00 01 01 00 FF 
01 01 FF 01 01 FF FF 00 00 01 01 00 FF 00 00 00 
00 00 01 00 00 00 FF 00 FF 00 FF FF 00 01 FF FF 
01 00 FF 01 FF 00 00 00 FF 00 01 00 FF 00 01 00 
FF 01 FF 01 00 FF FF 01 01 01 01 00 00 00 00 00 
01 01 00 FF 00 FF 01 01 00 01 01 00 00 01 00 01 
FF 01 01 00 00 FF 00 FF FF 00 01 00 01 01 FF FF 
00 00 FF FF 01 FF 00 FF FF 00 01 00 FF 00 00 00 
00 00 FF 01 01 01 FF 01 00 FF FF 00 01 00 01 00 
FF FF 01 01 01 00 01 01 01 FF FF FF 00 FF 01 01 
00 FF 01 FF 01 FF 01 00 FF FF FF FF 01 01 00 01 
00 00 01 00 01 01 FF 01 FF 00 00 01 00 FF 01 01 
00 01 01 00 FF 01 01 00 FF FF 00 01 FF FF 01 01 
01 01 FF 01 FF FF FF FF FF 00 01 00 01 01 01 FF 
01 01 01 01 01 00 00 01 00 FF 01 FF FF 00 01 FF 
01 FF 00 01 00 00 01 00 01 01 00 01 01 FF FF 01 
FF 01 01 01 FF FF 01 FF FF 01 FF 00 00 01 01 00 
FF FF FF 01 01 01 00 00 01 01 00 00 FF 00 FF 00 
FF 01 FF 00 FF 00 01 FF FF 01 FF 01 FF 01 FF 00 
FF FF FF 01 FF 01 00 FF 01 01 01 FF 00 FF 00 01 
00 01 FF 00 FF 00 FF 00 00 FF 00 00 01 01 00 FF 
FF 00 01 00 00 FF 01 01 FF 00 01 01 01 FF 00 FF 
FF 01 01 00 FF 01 FF 01 01 00 00 01 00 01 01 01 
01 01 FF 00 FF FF FF 00 01 01 FF 01 FF 00 01 00 
FF 01 FF 01 00 FF 00 00 01 FF 00 01 FF 00 00 FF 
FF 01 00 00 00 01 01 FF 01 01 01 FF 00 01 01 FF 
01 01 01 00 FF 00 FF 01 01 01 01 01 00 FF FF 01 
00 01 00 01 01 00 01 00 00 FF 01 00 FF 00 00 01 
00 00 00 00 01 01 01 00 01 00 01 FF FF FF FF 01 
01 01 01 01 00 01 01 FF 01 00 00 01 00 FF FF FF 
00 00 FF 00 FF FF FF FF 01 FF 00 01 FF 01 01 00 
01 00 00 FF 01 FF 01 00 FF FF 01 01 01 01 FF FF 
00 FF 01 FF FF FF FF FF FF 01 FF 00 01 00 FF 00 
01 01 FF 00 FF 01 00 FF FF 00 FF 01 00 00 FF 01 
00 FF 01 FF FF 00 00 00 FF 00 FF FF FF 00 01 FF 
FF 01 01 FF 01 00 01 01 FF 01 FF 00 FF FF 00 FF 
FF 00 FF 00 FF 00 01 00 FF 01 01 00 00 00 01 01 
00 01 00 FF 01 FF 00 01 FF 00 00 00 01 FF 00 FF 
01 01 00 FF FF 00 01 00 00 00 FF 00 00 01 FF 01 
FF 00 00 01 01 FF 00 FF 00 01 01 FF FF FF FF FF 
FF 01 00 FF 00 FF 01 01 01 FF FF FF FF 01 FF FF 
FF 01 01 FF 01 01 00 00 00 FF 00 FF 00 01 FF 00 
01 00 01 FF 01 00 FF 00 01 01 01 FF 01 FF FF 01 
FF 00 FF FF FF 00 00 01 01 FF 01 FF FF FF 00 01 
01 00 FF 00 FF 00 00 FF 00 00 FF FF 01 01 00 01 
00 01 FF 00 01 00 00 00 00 00 01 00 01 00 00 01 
00 01 00 00 FF 01 01 01 00 FF FF FF FF 00 FF 00 
00 FF FF FF 01 00 01 FF FF 01 01 FF 01 FF 01 FF 
01 00 01 00 00 00 00 FF 01 00 00 01 00 01 00 FF 
00 00 00 FF FF FF 00 00 FF 00 00 01 01 00 01 01 
FF 00 FF 01 FF 00 01 FF 00 00 01 01 00 00 01 FF 
FF FF FF FF FF 01 01 00 00 00 00 00 FF 00 FF FF 
FF 00 FF 00 FF 01 00 00 00 00 FF FF 01 FF FF FF 
FF 00 00 01 00 00 00 01 00 FF FF 00 00 00 01 01 
FF 01 00 00 01 01 01 00 FF 00 00 00 00 01 01 01 
01 00 01 FF 00 FF FF 01 FF 00 00 FF 01 00 FF FF 
00 00 01 FF FF 00 01 00 FF 00 01 01 01 01 01 00 
00 00 00 FF 00 01 01 FF FF 00 FF FF 01 FF 00 FF 
00 FF 00 01 FF 00 00 FF FF 01 01 01 00 00 00 FF 
01 FF FF 01 01 FF 01 FF 01 01 FF 01 FF FF FF 01 
FF 01 01 FF FF FF 00 00 01 00 00 01 FF 01 FF FF 
01 00 01 01 01 01 01 FF 01 00 01 01 00 FF 01 00 
FF 00 FF 00 FF 01 FF FF FF 01 01 00 01 FF FF 01 
01 FF 01 01 FF 01 01 FF FF FF 00 00 00 FF 00 00 
FF 01 FF FF 00 FF FF 01 FF 00 01 FF 00 01 01 FF 
01 01 01 FF 01 FF 00 FF FF 01 01 00 FF 00 FF FF 
FF FF 00 01 01 FF 01 FF 00 00 FF 01 FF FF FF 00 
00 FF 01 FF FF 00 FF 00 FF FF FF 01 01 00 FF FF 
01 01 FF 01 01 FF FF 00 00 FF FF FF 00 00 00 01 
00 00 FF FF FF 01 01 00 FF 00 FF FF 01 00 00 01 
00 01 00 00 01 00 01 00 01 01 00 01 00 FF 01 01 
01 FF FF 01 FF 00 FF FF 01 01 FF 00 00 01 00 01 
01 FF FF 00 FF 01 01 FF 01 01 01 FF 01 FF FF 00 
FF 01 00 FF FF FF 00 01 FF 01 00 00 01 FF FF 00 
00 00 FF 01 FF FF 01 FF 01 FF 00 01 FF 01 00 00 
00 00 01 01 00 FF 01 01 FF 00 FF FF 01 FF 00 FF 
01 01 FF 01 FF FF FF 01 00 00 00 00 00 00 FF 00 
01 01 00 00 FF 00 FF 00 FF FF 00 01 00 00 00 FF 
FF 00 FF 00 01 00 00 FF FF FF 01 00 00 01 01 00 
00 00 01 FF FF FF 00 00 FF FF FF 01 01 01 FF 00 
00 00 01 FF 01 FF 01 01 01 00 01 00 00 01 FF FF 
00 FF FF 00 00 01 01 01 FF 00 FF FF FF FF 00 00 
01 00 FF 01 01 FF 01 00 00 01 FF FF 00 00 00 FF 
00 01 01 FF 01 01 FF FF 00 00 FF 00 00 01 00 00 
00 01 00 FF 01 00 01 FF FF FF 00 01 01 FF 01 00 
01 01 01 01 01 FF FF FF 00 01 01 FF 01 FF FF FF 
01 00 FF 01 FF FF 00 00 00 01 FF FF FF 00 01 FF 
00 01 00 00 01 00 01 00 00 00 01 FF 01 01 FF 01 
00 01 FF 01 01 00 FF 00 00 01 01 00 00 01 01 FF 
00 FF 00 00 FF FF FF 00 01 FF 01 01 01 FF 01 01 
01 FF 00 FF 00 FF 00 01 01 00 00 00 00 FF 00 01 
00 FF 00 00 FF 01 FF 01 01 FF 01 FF 00 01 01 FF 
FF FF FF 00 FF 01 FF FF 01 00 00 FF 01 FF 01 FF 
FF 00 01 00 00 FF 00 00 00 00 00 01 00 FF 00 00 
01 01 FF FF FF FF 00 01 01 FF 01 00 00 01 FF 00 
01 FF FF FF 00 01 01 FF 00 00 01 FF 01 00 00 00 
00 00 01 00 01 00 FF 01 00 FF 00 FF 01 00 FF 00 
FF 00 01 00 FF 01 00 01 00 01 01 FF FF FF FF 00 
01 FF FF 01 00 FF 00 FF 00 01 01 00 01 01 FF FF 
FF FF 00 00 FF 00 FF 00 FF 01 00 FF FF 00 FF FF 
01 FF 01 00 01 00 FF FF 00 01 01 00 00 FF 00 01 
FF FF FF FF 00 00 00 01 FF FF 01 00 FF FF 00 01 
00 00 01 00 01 01 00 FF 00 01 FF FF 01 00 FF FF 
01 FF 00 00 01 FF FF 01 FF FF 00 00 00 01 01 01 
FF 00 00 FF FF FF 00 01 FF 00 01 01 FF FF 01 FF 
00 FF 01 FF FF 01 01 00 FF FF FF 01 FF FF 01 00 
00 00 00 01 01 01 00 01 00 00 00 01 00 00 01 01 
01 00 01 FF 01 01 01 01 FF FF 00 00 FF 01 01 01 
FF FF 00 01 FF FF 00 01 01 FF 00 FF 01 01 FF 01 
00 FF 01 FF FF 01 00 00 FF 01 01 00 00 01 00 01 
01 FF 00 00 00 FF FF FF FF FF 01 01 FF FF 01 00 
00 01 FF 01 01 00 00 FF 00 00 00 00 00 FF FF 00 
01 01 01 00 01 00 01 00 00 00 00 01 FF 00 FF 01 
FF FF 00 01 01 01 FF 00 00 FF 01 01 FF 01 00 FF 
00 00 00 01 01 00 FF 00 FF 00 FF FF FF 00 01 00 
FF 00 00 01 00 01 FF FF 01 01 FF FF 01 01 00 00 
FF 01 00 FF FF 00 01 00 00 01 01 00 00 01 FF 00 
FF 01 01 01 01 01 FF 00 FF FF 01 FF 01 FF 00 FF 
00 00 FF 01 01 01 00 00 01 00 00 00 FF 00 FF 00 
00 01 FF FF FF FF 01 FF 00 01 FF 00 FF 01 01 01 
FF FF 01 00 00 FF 01 FF 00 00 01 01 FF 00 FF 01 
00 00 FF 00 01 FF 00 00 01 01 FF 00 01 FF FF 01 
FF 01 00 01 00 01 FF FF FF FF FF 00 01 00 00 00 
01 01 01 FF 01 01 00 01 00 01 00 00 01 00 01 00 
01 FF FF FF 01 00 FF FF 01 00 00 01 FF FF FF FF 
01 FF FF 01 FF FF 01 00 01 00 00 01 01 FF FF 00 
00 00 01 00 FF FF 01 FF 00 00 01 01 FF FF FF 01 
00 00 01 00 00 01 FF 00 FF 00 FF FF 01 00 01 00 
01 01 FF FF FF FF FF 01 00 00 01 00 01 FF 01 FF 
00 01 01 FF 01 FF 00 01 FF 01 FF 01 00 00 00 00 
00 01 FF 00 01 00 FF 01 01 01 00 00 01 FF 01 01 
FF 01 01 FF FF 00 FF 00 00 00 FF FF FF FF 00 00 
01 00 01 FF 00 FF 01 FF FF FF FF FF 01 FF FF FF 
00 01 FF 00 00 FF 01 FF 01 FF FF 01 00 FF FF 00 
01 FF 00 FF 00 00 00 01 00 01 FF 00 01 00 00 FF 
00 01 01 FF FF 01 FF 01 00 01 FF 01 01 00 FF 00 
01 01 01 00 FF 00 FF FF 00 FF 00 00 01 00 FF 00 
FF 01 01 00 FF FF 00 00 01 01 00 01 FF 01 01 FF 
01 00 00 00 FF 00 00 00 FF FF FF 01 00 FF 00 FF 
00 FF 00 00 00 FF FF 00 01 00 00 00 00 FF 00 00 
01 FF FF FF 01 00 01 FF 01 01 00 00 00 01 00 01 
00 01 00 FF FF 00 00 FF FF FF 00 01 00 00 00 00 
01 00 01 00 FF 00 FF FF 01 00 00 FF 00 FF 01 01 
00 FF 01 01 01 01 FF 01 FF 01 01 01 00 FF 00 FF 
01 00 01 FF FF 01 00 01 00 FF 01 FF 00 01 01 FF 
FF FF FF 01 01 FF FF 01 FF 01 01 00 FF 01 01 FF 
FF 01 00 FF 01 01 00 00 01 00 00 00 01 00 01 01 
00 01 FF FF 00 FF 00 01 01 00 01 FF FF 00 00 00 
00 FF FF 00 01 00 FF 01 FF 01 00 01 FF 00 FF 01 
01 FF FF 00 FF 01 FF FF 00 FF 00 01 01 FF 00 00 
FF 00 FF 01 FF FF 01 00 01 00 00 00 FF 00 FF 01 
01 00 FF 01 00 00 FF FF 01 00 01 01 01 00 FF 01 
FF 01 01 FF 01 01 FF FF FF 00 00 FF FF 01 FF 01 
FF 00 01 01 00 01 01 FF 01 FF FF 00 00 00 00 01 
FF FF FF 00 FF FF 01 00 01 00 01 01 FF 00 01 00 
01 01 01 00 01 01 01 00 01 01 FF 00 00 00 00 01 
FF 00 00 00 FF FF 01 01 01 FF FF FF 00 FF 01 00 
FF 01 FF 01 00 01 00 00 01 01 FF 00 01 01 00 FF 
FF 00 00 00 01 00 01 01 01 01 01 FF FF 01 00 FF 
00 01 FF 00 01 01 FF 01 01 FF 00 00 FF FF 00 FF 
00 FF FF 00 00 01 00 FF 01 FF 00 01 FF 00 00 01 
FF 00 00 FF 01 00 FF 00 01 01 FF 01 FF 01 00 01 
01 00 FF 01 00 00 FF FF FF FF FF 00 00 00 00 01 
00 FF FF FF 00 00 01 01 00 FF 00 00 FF FF FF FF 
00 01 01 FF 00 00 FF 01 00 01 FF 01 00 01 01 FF 
FF 01 00 01 00 FF 00 01 00 00 00 00 00 01 01 FF 
00 01 FF 00 FF 01 FF 01 01 00 00 FF 00 01 00 01 
00 01 00 FF 00 FF FF FF 00 00 FF 01 01 FF FF FF 
01 01 00 00 01 FF FF 01 01 FF 01 FF 01 00 01 00 
01 00 FF 00 01 FF 00 FF FF 00 00 01 01 01 FF FF 
01 FF 00 01 FF 01 00 01 FF 00 FF FF FF FF 01 FF 
00 FF 00 00 00 00 01 01 FF 00 01 FF 01 FF FF 00 
00 01 00 01 00 01 01 01 00 01 FF FF FF 01 FF 01 
FF FF 00 01 00 00 00 00 FF 00 01 01 01 01 01 FF 
00 FF FF 00 FF 01 00 FF 00 00 FF 01 01 00 00 01 
00 FF 00 FF 01 FF 01 FF 01 00 FF 00 01 FF 01 FF 
00 01 01 00 00 FF 01 FF FF 01 FF 01 01 00 00 00 
01 FF 01 01 00 00 FF 00 FF 00 01 01 00 01 00 01 
01 00 00 00 01 00 00 01 00 01 01 FF 00 FF 01 00 
00 00 FF FF FF FF 00 00 01 FF 00 FF FF FF 01 01 
00 00 FF 00 01 01 00 00 00 FF 01 FF 01 01 01 FF 
00 FF 00 01 01 01 FF 00 00 01 01 00 01 01 01 01 
00 FF 00 00 FF FF FF 01 00 FF FF FF 01 FF 00 00 
00 FF FF FF 01 FF 01 00 FF 01 00 FF 01 FF 01 FF 
FF 00 01 00 01 FF 01 FF FF FF 00 FF 00 FF 00 FF 
FF 00 00 01 00 FF 00 01 FF FF FF FF FF FF 00 00 
01 00 00 01 00 FF FF 00 00 01 01 FF 01 FF FF 01 
01 01 01 01 00 00 00 01 00 01 01 01 00 FF 00 00 
01 01 00 FF FF 01 FF 01 01 01 FF 00 00 00 00 FF 
00 FF 01 FF FF 01 01 00 01 00 00 FF 00 FF FF 00 
01 00 FF FF 00 FF 01 FF FF FF 01 01 01 FF FF 00 
00 FF 00 00 FF FF FF FF 00 01 FF FF 01 00 01 01 
FF 01 FF 00 FF FF 01 00 00 00 00 FF 00 01 01 00 
01 FF 01 FF 00 FF 00 01 01 01 FF 01 00 FF 01 00 
FF FF 00 00 00 FF FF 01 FF 01 FF 01 00 FF FF 00 
FF FF 01 00 FF FF 00 00 FF 01 00 01 FF 01 FF 00 
01 01 FF FF FF FF FF FF FF 00 01 00 00 00 FF 01 
00 FF 00 01 00 01 00 01 FF 00 00 FF FF FF 01 FF 
01 01 01 FF FF FF FF FF 01 00 01 00 01 FF 00 00 
00 01 00 01 FF FF 01 FF 00 00 00 01 00 FF 01 00 
FF 01 00 00 FF FF 01 01 01 01 FF 01 01 01 00 FF 
FF 01 00 00 01 FF 00 00 00 FF 00 00 FF 01 FF 00 
00 00 00 00 01 FF FF 00 FF 01 00 FF 01 01 00 01 
01 01 00 01 FF 01 01 FF FF FF 00 01 FF 00 FF 01 
FF 00 FF FF 01 01 01 FF 01 01 00 00 00 01 01 00 
FF FF 00 FF 00 00 FF 01 01 01 00 FF 00 01 01 01 
00 FF FF 01 01 FF FF 01 01 01 00 00 00 00 01 01 
01 00 FF 00 01 00 00 01 01 01 01 FF 01 01 FF 01 
01 00 00 FF 01 01 01 00 00 00 FF FF FF 00 FF FF 
01 00 01 FF 01 FF FF 01 00 01 FF FF 01 00 01 00 
FF 00 01 FF 00 01 00 01 FF FF FF 01 00 00 01 00 
01 01 00 01 00 00 01 01 00 FF FF FF 00 00 FF 01 
01 FF 01 00 01 01 00 00 01 00 FF 00 FF FF 01 01 
01 00 01 FF FF 01 FF FF 01 00 00 00 01 01 01 01 
FF 00 00 01 FF FF 00 FF 01 01 00 FF FF 00 01 FF 
FF 01 00 00 00 FF 00 00 00 00 FF 00 FF 01 00 FF 
00 FF 00 FF 00 FF FF FF FF FF 00 FF 01 01 00 FF 
00 00 00 00 00 00 01 FF 01 01 01 FF 01 FF 00 00 
FF FF 00 00 FF 01 FF 00 01 01 FF 00 00 00 00 00 
FF 00 01 01 01 01 FF 01 FF 01 01 01 00 00 00 00 
00 01 00 FF FF 01 01 01 00 01 01 FF 01 FF 01 FF 
00 00 FF 00 00 FF FF 00 00 00 00 01 01 FF 00 01 
FF FF FF 00 01 01 FF 01 FF 01 FF 01 00 01 01 01 
00 FF 01 01 00 FF 00 FF 00 FF 01 00 FF 00 00 00 
01 00 01 01 FF 00 00 FF FF 00 FF 00 00 00 01 01 
00 01 01 FF 01 00 FF 00 00 FF FF 01 01 00 00 01 
01 00 00 FF 01 00 00 FF 01 01 01 00 FF 01 00 01 
00 FF 01 00 00 FF FF FF FF FF FF FF 00 01 01 FF 
FF 01 FF FF FF 01 00 FF 01 00 01 01 00 00 01 FF 
01 01 01 01 FF 01 01 00 01 FF 01 FF 01 01 00 FF 
00 01 00 00 00 FF FF 00 00 01 01 FF FF 00 01 00 
00 00 FF 01 01 01 00 00 FF 00 FF 01 00 00 FF 00 
FF 01 01 FF 01 FF 01 01 FF 01 FF 00 00 01 01 FF 
01 01 00 00 FF FF 01 00 01 01 00 FF 00 01 00 01 
00 01 FF 01 01 00 00 FF FF 00 01 01 01 01 FF 00 
FF 01 01 FF 01 00 00 00 01 01 00 00 01 00 00 01 
00 FF 01 FF 00 FF 00 00 01 00 00 00 00 01 01 00 
01 01 01 00 00 00 01 00 01 00 01 00 FF 00 00 00 
00 FF 01 01 00 00 01 01 FF 00 FF 00 00 00 00 FF 
00 FF 00 FF 01 00 00 00 01 00 FF 00 FF 01 01 01 
01 01 01 01 FF 01 00 00 FF 01 00 01 00 01 01 FF 
01 00 FF 01 01 01 FF 01 00 00 FF 00 00 FF 00 00 
01 00 FF 00 FF 00 FF 00 01 00 FF FF FF FF FF 00 
00 00 FF FF 00 01 FF 01 00 01 01 01 FF 00 FF 01 
FF 01 00 FF 00 FF 01 FF 00 FF 00 FF FF 01 00 00 
00 00 01 01 00 FF FF 01 01 01 00 01 FF FF FF 00 
01 01 00 00 01 00 FF 01 00 01 01 01 00 FF FF FF 
01 FF FF 00 FF FF FF 00 01 FF FF FF FF 00 00 FF 
00 FF 01 00 01 01 FF 00 00 FF FF FF FF FF 00 00 
00 00 FF FF 01 00 00 01 01 01 00 01 01 FF FF 00 
00 FF 01 00 01 00 FF 01 00 FF 01 FF 01 00 01 FF 
01 01 00 01 00 FF 01 00 FF FF 00 FF FF FF 00 01 
00 FF 00 00 01 00 FF 00 01 FF 00 00 00 FF 01 00 
FF 00 00 00 01 FF FF FF 00 FF FF 01 FF 00 01 00 
01 00 01 01 FF FF FF FF 00 01 00 FF 01 00 01 FF 
FF FF 00 01 01 FF 01 FF FF FF FF FF 00 FF 01 FF 
01 01 01 FF 01 FF FF 00 01 00 01 01 00 00 01 01 
01 01 01 00 01 01 01 FF 01 01 00 FF FF FF 00 FF 
01 01 FF FF 01 00 01 FF FF 00 01 00 FF FF FF 01 
01 FF 00 01 01 00 01 00 00 FF 00 01 00 FF FF 00 
01 00 01 01 01 00 FF 01 FF FF 00 FF 00 01 00 00 
FF FF FF 01 00 FF 00 01 00 FF 01 01 00 01 00 FF 
FF 00 00 01 01 00 FF 00 01 01 00 FF 00 01 00 01 
FF 01 FF 00 01 01 01 FF FF 00 FF 01 01 FF FF FF 
00 00 00 00 00 00 01 FF FF 01 01 01 01 00 FF FF 
00 00 00 00 FF 00 01 FF FF FF FF FF FF 00 FF 01 
01 00 00 FF FF 00 01 FF FF 00 00 FF 01 00 FF 00 
01 01 FF FF 00 FF FF 01 00 00 FF 01 01 FF 01 01 
FF 00 00 FF FF 00 01 FF 01 FF 00 01 00 01 00 FF 
FF 00 FF 00 01 00 00 FF FF 01 FF FF 01 FF 00 FF 
00 FF 01 01 00 00 00 FF 00 01 FF FF FF 01 00 FF 
FF 01 01 FF 00 00 00 01 FF 00 FF FF 01 00 00 00 
00 FF 00 01 01 01 FF FF FF 01 00 FF 00 01 FF 01 
00 FF FF 01 00 00 01 00 FF FF 00 01 00 FF 00 00 
FF FF 00 FF FF 01 00 FF 00 01 00 01 00 00 01 FF 
01 00 FF FF 01 01 00 FF FF 00 00 01 00 01 00 FF 
FF 01 FF 00 01 01 01 00 01 00 01 00 FF 01 00 FF 
FF 01 FF FF 01 FF 00 FF 01 01 01 FF FF 00 00 00 
01 FF FF 00 FF FF 00 01 00 FF FF 01 FF FF 01 00 
01 00 01 01 01 00 FF 00 00 FF 01 01 01 00 FF 01 
00 00 FF 00 01 01 FF FF FF 01 FF 00 01 FF FF 01 
01 FF 01 00 00 FF 01 FF FF 01 01 FF FF 00 01 01 
01 00 00 00 FF FF 01 00 01 01 FF 01 FF FF 00 01 
00 00 00 FF 00 00 00 01 00 00 FF 00 FF FF 01 01 
00 FF 00 00 FF 00 FF FF 01 FF 01 FF 00 01 00 FF 
FF 01 00 01 00 FF 01 01 00 01 00 FF FF FF 01 00 
00 01 00 01 00 01 FF FF FF 01 01 01 01 FF FF FF 
01 01 FF FF 01 FF FF 00 01 01 00 FF FF 01 01 01 
01 00 01 FF 00 01 01 01 01 00 00 01 00 01 FF FF 
00 00 01 FF 00 01 FF 00 01 00 00 FF FF 01 01 01 
FF 01 FF 01 00 FF 00 01 00 00 01 01 FF FF FF FF 
00 FF 00 01 00 00 FF FF FF FF 00 FF FF 01 00 FF 
00 01 FF 00 01 01 FF FF FF FF FF 00 FF 00 01 01 
01 FF 00 FF 01 01 00 FF FF FF FF FF 01 01 01 FF 
00 FF 01 FF 01 FF 00 FF FF 01 01 00 01 00 FF 01 
01 01 01 00 FF 00 00 FF 01 FF 00 00 FF FF FF 01 
FF 01 FF 01 FF FF FF 00 FF 01 00 01 00 00 00 00 
01 00 FF 01 00 FF 01 FF 00 FF FF 00 00 FF FF 00 
FF 01 01 00 01 01 00 FF FF 01 00 00 00 FF FF FF 
FF 00 01 00 01 FF 00 FF 00 00 00 FF 01 FF 00 00 
01 00 FF 01 00 00 01 01 00 FF 00 FF 00 01 FF 00 
00 00 FF FF 01 00 00 FF 00 01 FF 00 01 FF FF 01 
00 00 00 FF FF 01 01 01 01 00 FF 00 00 00 FF FF 
FF FF FF 01 01 00 FF 00 00 FF FF 00 FF 00 00 FF 
FF FF 00 FF 01 01 FF 01 00 FF 00 01 FF 00 01 FF 
01 FF FF 01 01 FF 00 FF 00 00 01 FF 01 00 00 01 
01 01 00 00 00 00 FF 01 FF 01 01 FF 00 00 00 00 
01 00 00 00 01 01 FF 01 FF 01 01 00 00 FF FF FF 
01 00 00 01 00 FF 00 01 01 00 FF 00 FF 00 01 FF 
00 00 01 00 FF 01 FF 01 01 FF FF 00 FF FF 01 00 
FF 00 FF 01 00 01 01 00 00 01 FF FF 00 00 00 FF 
01 FF 01 FF FF 01 01 FF FF 01 00 00 FF 00 FF 00 
FF 00 00 00 00 FF FF FF FF 00 00 01 FF 01 01 01 
FF 01 FF FF FF FF 00 00 FF FF 01 01 01 FF FF 01 
01 FF FF 00 FF 01 01 00 00 FF 00 00 FF 00 00 00 
00 01 01 01 FF FF FF 00 FF FF FF 01 FF 00 00 00 
00 FF 01 FF 01 01 01 00 FF FF 01 00 01 FF FF 00 
FF 01 FF 00 01 FF FF FF 00 FF FF 01 01 01 FF 00 
FF FF 01 FF 01 00 00 FF 01 00 01 01 FF 01 00 FF 
00 01 01 00 FF 01 01 01 FF FF 01 FF 01 00 01 FF 
01 00 00 00 FF FF FF FF 00 FF 01 00 FF FF FF 01 
00 01 01 00 FF 00 00 FF 00 FF 00 00 00 00 01 FF 
FF 00 FF FF 00 00 00 FF 00 00 01 01 01 FF FF FF 
01 01 01 FF 00 FF 01 FF 01 FF 00 00 FF 01 01 FF 
00 FF 01 01 01 FF FF 00 00 FF 01 01 FF 01 01 00 
01 FF 00 FF FF FF FF FF 01 00 01 01 00 01 01 01 
FF 01 01 01 FF FF FF 01 FF 01 00 01 01 01 FF 00 
01 01 00 FF FF 01 00 FF 01 00 FF FF FF FF FF 00 
FF FF FF FF FF 00 01 01 01 01 01 00 00 01 00 00 
00 01 00 01 01 FF FF 00 00 FF 01 01 00 01 FF 01 
FF 00 01 00 FF 01 00 FF 01 FF 00 FF FF 01 00 01 
FF 00 01 FF 00 00 01 00 00 00 00 FF 01 FF 01 FF 
00 01 00 01 FF FF 01 01 00 01 00 01 00 FF 01 01 
00 00 01 00 FF 00 FF 01 FF 00 FF FF 00 00 FF 00 
00 00 FF 00 01 00 01 00 FF FF 00 01 FF FF FF FF 
01 01 01 FF 01 01 FF FF 00 FF FF 00 00 FF 01 FF 
01 FF 01 FF 00 00 01 01 01 FF FF 00 00 FF 00 FF 
FF 00 00 01 FF 00 FF 01 FF FF FF 01 00 01 FF 00 
00 FF 00 FF 01 FF FF 01 00 00 FF 01 00 01 01 00 
FF 01 01 00 FF FF FF FF 00 01 00 FF 01 00 01 FF 
00 00 00 01 01 01 00 FF FF 01 FF 00 00 00 FF 01 
FF FF FF FF 00 FF 01 FF 01 FF 00 01 01 00 FF 00 
FF 00 00 FF FF 01 00 00 01 01 FF FF FF 00 01 00 
01 FF 01 00 FF 00 00 00 01 FF 00 01 01 00 00 01 
00 01 FF 01 01 01 00 00 01 00 01 FF FF 01 00 FF 
01 FF 01 FF FF 00 01 01 01 00 01 01 FF 00 01 01 
FF FF 00 FF FF FF 01 01 01 00 FF FF 00 00 00 00 
01 00 01 01 FF 01 FF 01 00 FF 01 01 01 00 00 FF 
01 FF 00 01 00 FF 01 00 FF 01 01 01 00 00 00 01 
FF 00 00 FF FF 01 FF 00 FF 01 00 FF 00 01 FF 00 
00 01 00 FF FF 00 01 00 00 00 FF 00 FF 00 00 FF 
01 FF FF 00 FF 00 01 00 FF 01 01 FF 00 01 00 FF 
01 FF FF FF 01 01 00 01 00 01 FF 00 00 00 FF 00 
00 FF 01 01 01 FF 00 FF 01 FF FF 00 00 01 01 FF 
FF 01 00 FF FF 01 01 00 00 FF FF FF 01 FF FF 01 
01 01 00 01 FF 00 FF 01 00 00 01 01 00 00 FF 01 
00 00 FF 00 00 01 01 00 00 00 01 FF 01 01 01 00 
01 00 00 01 FF 01 FF 00 00 01 01 01 FF FF FF 01 
01 00 00 00 00 00 01 01 01 01 FF FF 01 01 01 00 
00 00 01 00 FF FF 00 01 01 00 00 FF 00 01 01 00 
FF 00 FF FF FF FF 01 FF FF 01 FF FF FF FF 01 01 
01 01 00 01 01 FF 00 01 00 FF 01 FF 00 FF 01 01 
00 FF 01 01 00 01 FF 01 01 FF FF 01 00 FF 01 FF 
FF 00 FF FF 01 01 FF 00 00 FF 00 01 00 00 00 FF 
00 01 FF 00 00 FF 00 00 01 00 00 FF 01 00 01 FF 
FF 01 00 01 FF 00 00 00 01 01 FF 00 01 01 00 00 
00 00 01 FF FF FF 01 01 01 00 FF FF FF FF FF 00 
FF 00 00 FF FF 01 01 FF 01 FF 00 00 01 FF 00 01 
01 FF FF 01 01 FF 01 01 01 00 01 FF 00 FF 00 01 
00 FF FF 01 01 01 01 FF 01 00 00 FF 00 01 FF FF 
00 FF 00 FF 01 FF FF 00 00 FF FF 00 FF 00 FF 01 
01 00 00 01 FF 00 01 00 01 01 00 00 01 00 01 00 
01 FF 01 00 00 FF 00 00 FF 00 01 FF FF 01 01 FF 
00 01 00 01 00 FF 00 00 FF 01 01 00 00 01 01 FF 
FF 01 FF 01 01 00 FF 01 FF FF FF 00 01 FF FF 00 
01 00 00 00 01 01 FF 00 01 FF 01 FF 00 00 FF 00 
FF FF FF FF 01 00 FF FF 00 FF FF 01 00 FF 00 00 
01 FF FF 01 FF 00 FF 01 01 01 01 FF 00 FF 01 01 
01 FF FF 01 01 FF 00 01 01 00 00 00 01 FF FF 00 
FF 00 00 FF FF 01 01 FF 01 01 00 FF FF 00 00 FF 
01 01 FF 00 01 00 00 01 FF 01 FF 01 01 00 00 01 
FF 01 FF FF 01 FF 00 01 FF FF FF 00 00 00 00 FF 
FF 01 FF 00 FF 00 FF 00 01 00 FF 01 FF 00 FF FF 
01 FF 00 00 00 01 FF 01 FF 01 FF 01 FF FF 00 00 
FF 00 FF 00 FF FF FF 01 00 00 01 00 FF 01 01 FF 
FF 00 01 01 00 FF 01 01 FF FF 01 00 FF FF FF 00 
01 FF FF 01 FF FF FF FF 01 01 01 00 01 01 00 FF 
FF 00 FF 00 FF 01 00 FF 01 FF 00 00 00 01 FF FF 
01 00 01 00 01 FF 00 FF FF FF 00 01 01 01 00 FF 
00 00 01 00 00 00 00 00 01 00 01 FF FF FF 00 FF 
01 00 01 FF 01 FF FF 01 00 00 FF 00 FF 00 01 01 
01 01 00 FF FF FF 01 FF 01 01 00 01 FF 01 FF 00 
00 01 00 FF 01 00 FF 01 01 FF 00 FF 00 FF 00 00 
FF 01 01 00 01 01 FF 01 01 00 01 FF 00 FF 00 FF 
FF 01 00 FF FF 00 01 FF FF FF 01 01 00 FF 00 01 
01 00 00 FF FF 00 01 FF FF 00 00 01 01 FF 01 FF 
FF 00 FF 00 FF 00 01 FF 01 00 00 FF 01 01 FF 00 
00 01 00 FF FF 00 FF 00 FF 01 FF FF FF FF FF 00 
00 01 01 FF 00 01 FF FF 00 00 01 FF 00 01 01 FF 
01 FF 00 00 01 01 01 FF 01 FF FF FF 00 01 00 FF 
01 00 00 FF 00 00 00 01 00 FF FF FF 00 FF 00 FF 
FF 01 01 00 01 01 00 01 FF 01 01 00 01 00 01 00 
01 FF 01 FF FF 01 00 00 01 01 01 00 01 00 01 FF 
FF 00 00 FF 00 01 01 00 FF 00 00 01 01 00 01 FF 
01 01 FF FF 00 01 01 01 00 00 FF FF 01 FF 00 00 
FF 01 00 00 FF 00 00 FF FF FF FF 00 00 01 00 00 
FF 00 01 00 00 00 00 FF FF 01 00 FF FF 01 00 FF 
00 00 FF 00 01 01 01 01 01 FF FF 00 FF 01 00 FF 
01 FF FF 00 01 00 00 FF 00 01 FF 01 00 FF FF 00 
01 FF FF 00 FF FF 00 FF FF FF 01 00 01 FF 01 00 
FF 01 01 FF FF 00 FF FF 00 01 01 00 FF FF 01 01 
00 01 00 01 FF 01 FF 00 01 01 FF FF FF 01 01 00 
01 01 01 FF 00 01 FF FF 01 FF 00 01 00 FF 00 FF 
00 01 01 01 FF FF 00 FF 01 01 FF FF 01 00 01 00 
00 00 01 01 00 00 FF 00 00 01 FF FF FF FF FF 01 
FF 00 01 FF 00 00 01 01 FF 01 FF FF FF 01 01 00 
00 00 00 FF 01 FF 00 01 01 01 01 01 01 00 01 00 
FF 01 00 00 FF FF 00 00 00 01 01 01 01 00 01 00 
FF 00 00 00 00 01 FF 00 00 FF 01 01 00 01 FF 00 
00 01 00 01 00 01 FF FF 01 01 01 01 00 01 FF 00 
01 00 01 00 00 FF FF FF 00 01 01 01 00 FF 01 01 
FF FF 01 00 FF FF 00 FF 01 00 FF 00 01 FF 01 00 
01 FF FF FF FF FF FF 00 01 00 01 00 00 01 00 01 
FF FF 00 FF FF FF 00 FF FF 01 01 01 01 01 00 01 
FF 00 FF FF FF 01 FF FF FF FF 01 01 01 00 FF 01 
FF 00 FF 00 01 FF 01 01 01 00 01 FF 00 00 01 00 
FF FF FF 00 01 00 01 FF 01 01 01 01 FF FF 00 00 
01 01 FF 01 FF 01 01 FF 00 00 00 00 FF FF FF 00 
00 FF FF FF 01 01 00 00 01 01 FF 01 01 01 01 00 
FF 01 FF FF 01 01 00 FF 00 01 01 01 00 FF 00 01 
00 00 00 00 00 01 FF FF 00 01 FF 00 01 01 01 FF 
00 00 00 00 00 FF FF 00 FF 01 FF 01 01 01 00 00 
00 01 FF 01 01 00 01 00 00 00 01 00 FF FF 00 FF 
01 FF 00 FF 00 01 01 01 01 FF 00 01 FF FF FF 01 
FF 00 00 FF 00 01 00 01 FF 01 FF 00 01 FF 00 00 
00 00 01 FF 00 01 01 FF FF 00 FF FF 01 00 01 FF 
00 01 00 01 00 01 00 01 00 FF FF 00 00 FF 01 01 
01 FF FF FF 01 FF 01 01 01 FF FF 01 00 00 FF FF 
FF 00 01 01 FF 01 01 FF FF 01 00 00 FF 00 FF 01 
01 FF 00 00 00 FF 00 00 FF 01 00 01 FF 00 FF 00 
01 FF 00 01 FF FF FF FF 00 01 00 00 00 FF 01 FF 
FF FF 01 01 FF FF 00 00 01 01 00 00 FF 00 01 01 
FF 01 FF FF 01 FF 00 FF FF 01 01 00 01 00 01 00 
01 00 00 FF 01 FF 00 FF 01 01 00 FF 01 00 FF 01 
FF 00 01 FF 01 00 00 FF 01 FF FF 01 01 01 FF 00 
01 FF 01 00 FF FF 00 FF 00 FF 00 FF 01 01 FF FF 
FF FF FF FF 01 FF 00 00 FF 01 FF 00 00 01 FF FF 
01 FF FF FF 00 01 FF 01 FF FF FF FF 01 00 FF FF 
01 01 01 01 01 00 00 FF FF 01 01 01 00 FF 00 00 
00 00 01 FF 00 00 FF 01 00 00 FF 00 00 00 00 00 
00 00 FF FF FF 01 00 FF 00 00 00 FF 01 01 01 00 
00 01 00 01 FF 01 FF 00 01 FF 01 FF 00 00 00 FF 
00 01 00 00 00 FF FF 01 01 00 FF 01 FF 00 FF 00 
FF 00 00 00 01 00 FF 00 FF FF 01 01 01 00 FF 00 
FF 00 FF 01 01 FF 00 00 01 FF FF FF 00 00 01 01 
00 FF 00 FF FF 00 01 FF 01 00 01 01 01 FF 00 FF 
01 00 01 00 01 00 00 01 01 01 01 FF 00 00 FF FF 
00 01 00 01 00 FF FF FF 01 00 FF 01 00 00 01 FF 
FF 01 FF FF FF 01 01 FF 00 00 00 FF FF FF FF 01 
01 00 01 00 01 01 01 00 00 FF FF FF 01 FF 00 01 
01 00 FF 00 FF FF 01 FF 01 00 FF 01 00 01 01 01 
00 00 00 01 00 FF 00 FF 00 FF 00 FF FF 01 00 00 
00 01 01 01 FF 01 FF 01 FF 01 01 FF 01 00 FF FF 
FF 00 FF 01 01 01 FF FF 01 00 01 FF 00 00 00 FF 
FF 00 FF FF FF 00 FF 01 00 FF 01 FF 00 01 00 01 
00 01 00 FF 00 FF 01 00 00 00 00 FF FF 00 00 FF 
01 FF 01 00 01 FF FF FF FF FF FF 01 FF 01 00 00 
00 FF 01 FF FF 00 00 FF FF 00 00 FF FF FF 01 FF 
00 00 00 FF 01 01 00 01 FF 00 00 FF 00 01 01 FF 
FF 01 00 00 00 00 01 FF 01 FF FF FF 00 FF FF FF 
01 01 FF 00 01 00 FF FF FF 01 FF 01 01 00 FF FF 
00 00 01 01 01 01 FF 01 FF 01 01 FF 01 FF FF FF 
FF 01 00 01 FF FF 01 01 FF 00 01 FF FF FF 00 00 
00 FF 00 01 01 01 01 01 00 FF 01 00 FF 00 00 00 
FF 00 00 FF 01 01 FF 01 00 FF FF 00 FF 00 FF FF 
01 01 01 00 01 01 01 00 01 01 FF FF FF 01 00 FF 
00 FF 01 00 01 FF 01 FF 00 01 01 00 01 01 00 00 
00 00 00 01 00 FF FF FF FF FF 01 01 00 FF FF 01 
00 01 01 00 00 00 01 01 FF 00 00 01 00 00 01 00 
FF FF FF 00 00 FF FF 00 00 01 FF FF FF 01 FF 01 
01 01 FF FF FF FF FF 01 01 01 01 00 00 00 01 00 
00 01 00 01 01 00 01 00 00 FF 00 00 01 FF 00 01 
01 01 FF 00 FF 00 00 01 00 FF FF 01 01 FF FF 00 
01 00 01 01 FF 00 00 00 01 00 00 FF 00 01 01 00 
01 FF FF FF 00 00 00 01 01 01 01 01 FF FF FF 01 
01 FF 01 00 00 01 FF 01 FF 00 01 01 01 01 FF 01 
01 00 FF 00 FF 00 00 01 00 00 01 00 01 FF 01 01 
FF 01 FF FF 00 00 FF 01 FF 01 00 FF 01 FF FF 00 
01 00 FF 01 FF 01 FF 00 00 01 00 FF 01 FF FF 00 
01 00 01 01 FF 01 00 00 01 00 FF 00 00 FF FF 00 
01 00 FF FF 00 FF 00 01 FF FF FF FF FF FF 01 00 
01 01 00 01 00 FF 01 00 00 01 FF FF FF 00 00 01 
01 01 FF FF FF 00 FF FF 01 FF 01 FF FF 01 01 FF 
01 FF FF 00 00 FF FF FF 01 FF 00 FF 00 01 FF 00 
00 FF 01 01 FF 01 FF 01 01 FF FF 00 FF 00 01 01 
00 FF 00 FF 00 00 00 00 FF 01 01 01 00 01 00 00 
FF FF 00 FF 00 01 FF 00 FF 00 01 00 01 00 00 01 
01 01 FF 00 00 00 01 01 00 00 00 00 01 01 01 01 
00 00 FF FF FF 00 00 FF 01 00 00 FF FF FF 01 FF 
FF FF 01 00 01 01 FF 00 00 01 01 FF FF 01 FF 00 
FF 00 01 00 01 FF 01 FF 01 01 FF 00 01 FF 00 01 
FF 00 00 FF 00 01 01 01 01 01 00 01 01 00 00 FF 
00 FF 01 FF 00 01 FF 00 01 00 01 00 01 00 01 FF 
FF 00 FF 01 00 FF 01 00 00 FF 00 00 01 FF 00 FF 
00 01 01 01 00 FF FF FF 01 FF 01 00 FF 01 01 00 
00 00 00 FF 01 FF 01 FF 00 FF 00 00 00 00 FF 01 
FF 01 01 01 FF FF FF FF 00 FF FF 01 FF 01 00 00 
00 01 01 00 FF 00 01 00 01 01 FF FF FF FF FF 00 
FF 01 FF 01 FF 00 01 FF 00 01 01 00 FF FF FF 01 
01 FF FF 01 00 FF 00 FF 01 01 00 FF FF 01 00 01 
01 01 01 01 FF 00 01 01 01 01 01 FF FF 01 01 FF 
FF 00 FF 01 00 01 00 00 01 FF 00 FF FF FF 01 01 
FF 01 01 FF 00 FF FF 00 FF 01 01 FF 01 00 00 FF 
FF 01 FF 00 00 00 FF 00 FF 01 00 FF 01 01 FF 01 
00 FF FF FF FF 00 01 00 00 00 01 00 00 00 00 00 
FF FF 00 01 01 00 FF 01 01 01 FF 01 01 FF FF FF 
00 FF 01 01 01 00 00 00 00 00 01 FF 01 01 00 FF 
FF FF FF 01 FF 00 FF 01 00 FF 00 FF 01 00 00 FF 
FF 00 FF FF FF 00 00 01 01 01 01 FF 01 00 FF 01 
@00004000
01 00 00 01 01 00 01 00 FF FF 01 01 FF 01 01 00 
FF FF 00 00 01 FF FF 01 FF FF 01 01 01 FF 00 00 
01 FF 00 01 FF 00 00 FF 01 00 01 01 FF 01 FF 00 
01 01 01 01 FF 00 FF 00 00 FF FF FF 00 01 01 00 
FF 00 00 FF 01 01 FF 01 01 FF 00 01 FF FF FF FF 
FF 00 FF FF 01 FF 01 FF 00 01 01 FF 01 01 01 01 
00 FF 00 FF 00 01 01 FF FF 01 01 00 FF 00 00 FF 
01 FF 00 01 FF FF FF 01 FF 01 FF 01 01 01 01 00 
FF 00 00 01 00 01 FF 01 01 01 FF 01 FF FF FF FF 
FF 00 01 00 01 FF 00 01 FF 00 01 01 01 01 00 FF 
00 00 01 01 FF FF 00 FF 01 01 FF 00 01 FF 01 01 
00 01 01 FF 01 FF FF 01 01 01 FF 01 00 01 01 01 
FF 01 01 00 01 00 00 FF 00 00 01 FF 00 00 00 FF 
FF FF 00 FF 00 01 00 00 00 01 01 00 00 00 00 FF 
01 01 00 01 FF FF FF 00 01 01 FF 01 00 01 FF 01 
01 01 FF 00 01 01 FF 01 01 01 FF 00 01 01 00 00 
00 FF 00 FF 00 01 00 00 00 01 FF FF 00 00 FF 00 
00 00 FF FF FF 00 01 FF FF FF 00 01 FF FF 00 01 
FF FF 01 01 01 01 FF 00 01 00 01 00 FF 01 FF 01 
00 00 01 01 01 FF 01 01 FF FF FF 00 FF 00 01 00 
01 00 FF 00 00 01 00 00 00 FF FF 00 FF FF FF 01 
00 FF 00 00 FF FF 01 01 FF 01 FF 00 FF FF FF 00 
FF 00 01 00 00 00 FF 01 01 FF FF FF 01 00 01 FF 
00 FF FF FF FF 01 01 01 00 FF 00 01 00 00 FF 00 
FF 00 FF 00 01 00 FF FF 01 00 FF 00 01 00 FF 01 
00 FF 01 FF 01 00 FF 00 00 00 00 FF 01 01 01 FF 
00 FF 01 00 01 FF 00 01 00 01 00 01 FF 01 00 01 
01 FF FF 01 00 FF 00 FF 00 01 01 01 00 00 FF FF 
00 01 01 00 01 FF 00 01 FF FF 00 00 01 01 01 01 
01 01 01 00 FF 00 01 01 FF 00 00 FF FF 00 FF 01 
00 01 00 00 00 FF 00 00 00 FF 00 FF 01 FF FF 01 
01 FF 00 FF 00 00 FF 00 01 00 00 FF 00 FF FF FF 
01 01 00 FF FF 00 FF 00 00 00 00 01 00 01 00 00 
01 FF 01 FF 01 01 01 01 FF 01 FF 01 01 FF 01 01 
FF 01 00 FF FF 00 00 00 FF FF 00 01 FF FF FF 01 
00 01 FF 00 00 01 FF FF 00 FF 01 00 00 FF 00 01 
01 01 01 01 00 00 00 01 01 FF 00 01 00 00 00 01 
01 01 00 FF 01 00 00 00 01 01 FF 00 01 00 00 00 
00 00 00 01 FF 01 00 FF FF FF FF 00 00 01 00 FF 
01 01 01 01 00 00 FF 00 00 FF FF FF 01 01 01 FF 
00 00 FF 01 01 01 01 01 01 01 01 01 FF FF 01 01 
00 01 00 01 00 00 00 FF FF 01 00 01 01 00 00 FF 
00 01 FF FF 01 01 FF 01 FF 01 00 FF FF 01 FF 01 
01 00 01 FF FF FF 01 FF 01 00 00 01 01 FF 01 00 
01 01 00 00 FF 01 01 00 00 FF 01 01 FF 01 00 FF 
FF 00 00 00 00 FF FF 01 00 00 00 01 01 01 FF 00 
01 01 FF FF 00 01 00 FF FF FF 00 00 01 FF 00 FF 
01 01 FF 00 FF FF FF 01 01 FF 00 00 FF 01 01 01 
00 FF FF FF FF 01 00 01 FF 01 FF FF 00 01 00 FF 
01 00 01 FF 01 00 FF 00 00 00 01 01 FF 01 00 01 
FF 01 01 00 01 01 FF 01 01 00 FF FF FF 01 00 00 
FF 00 00 FF FF 00 00 01 00 00 00 00 00 FF 00 01 
FF 00 00 01 FF 01 01 00 FF 01 00 01 01 00 FF FF 
FF 01 00 FF 00 FF 01 01 01 FF 00 00 FF FF 00 00 
FF 01 FF 00 00 FF 01 FF 00 01 FF 00 FF 00 01 FF 
FF 00 FF 01 01 FF 01 01 FF 01 00 00 01 01 FF FF 
00 00 01 00 FF 01 01 00 00 FF FF 00 00 01 00 01 
00 01 01 00 01 01 00 FF 00 01 01 00 00 FF 01 FF 
00 00 00 01 00 00 FF 01 00 00 01 01 00 FF FF FF 
00 01 01 FF 00 FF 01 FF 01 00 01 00 01 00 00 00 
00 FF 00 01 01 01 01 00 00 00 00 01 FF 00 FF 00 
FF 01 01 FF 01 00 00 01 FF 00 FF 01 01 00 00 FF 
01 FF FF 01 01 00 FF FF 01 00 FF FF FF FF 01 00 
01 FF 01 01 01 FF 00 FF 00 00 FF 01 00 01 FF FF 
01 01 01 FF FF FF FF FF FF 01 01 00 01 00 FF FF 
00 FF FF 00 00 01 01 00 00 FF 00 FF FF 00 00 FF 
FF 00 FF 00 FF 01 01 FF 00 00 00 00 FF 00 01 FF 
01 FF 01 00 FF 00 FF 01 00 00 FF 01 01 01 00 00 
FF 00 FF 00 00 01 00 FF 00 FF 01 FF FF 00 FF FF 
01 01 00 FF 00 01 FF FF FF 00 00 FF FF 01 01 00 
00 01 FF FF FF 01 FF 01 00 FF 01 00 FF FF 00 FF 
FF 00 00 00 FF 01 FF 00 FF 00 01 FF FF 01 01 00 
01 FF 01 01 FF 00 FF 01 00 FF 00 01 00 FF FF 01 
00 01 01 FF 00 01 01 00 FF 01 01 00 01 01 FF 00 
FF 00 00 00 01 00 FF 00 00 00 01 FF 00 01 FF 00 
00 01 00 01 01 00 00 FF 00 00 01 FF FF 01 00 FF 
FF 01 00 FF 00 00 FF 00 FF 01 01 01 00 FF FF FF 
01 01 FF 01 FF 01 01 00 FF 00 00 FF 01 FF 01 FF 
00 00 00 01 00 00 00 00 FF 00 FF 01 00 00 FF 01 
00 FF 00 01 FF 01 FF FF FF 01 00 01 00 FF FF 01 
01 01 01 FF FF 00 01 00 FF 00 00 01 01 01 01 00 
01 01 FF FF 00 01 FF 00 01 01 01 FF FF FF FF FF 
01 FF 00 FF 00 00 01 01 01 00 00 FF FF 01 00 FF 
00 01 FF 01 01 FF 00 FF 01 FF 00 FF FF 01 00 FF 
01 FF 00 00 01 FF FF 00 00 01 00 00 00 FF 00 01 
00 00 00 FF 01 FF 00 FF 00 FF 00 FF 01 00 FF 00 
00 01 01 FF FF FF FF 01 01 01 00 00 FF 00 FF 01 
FF FF 01 00 FF 01 00 01 01 FF 01 00 00 FF FF 00 
FF FF 01 FF FF 01 FF 01 FF FF 00 00 00 01 FF 01 
FF FF FF 00 01 01 FF 00 FF FF FF 01 00 00 FF 00 
00 FF 01 00 FF 00 01 FF 00 FF 00 FF FF 00 01 FF 
FF FF 00 01 FF 01 01 FF FF 01 00 00 00 00 FF 01 
01 FF 01 FF 00 00 00 FF 01 00 FF FF FF 00 00 FF 
01 00 FF 01 00 01 00 00 01 01 FF 00 00 FF 00 00 
FF 00 01 FF FF 00 FF 01 01 01 FF FF FF FF FF 01 
01 00 01 FF 00 FF 01 00 01 01 01 00 FF 00 FF 00 
01 01 00 FF FF 01 00 FF 01 01 00 01 01 00 01 00 
00 00 01 01 01 00 FF 01 FF 00 FF 00 01 00 FF FF 
FF 00 FF 01 00 01 FF FF 01 00 FF 01 FF FF 01 00 
01 00 00 01 FF 01 01 00 FF 00 FF FF 01 00 00 FF 
01 01 FF 01 01 FF FF 00 00 01 00 00 01 FF 00 01 
01 01 00 FF 01 00 01 FF FF 01 00 01 FF 01 01 00 
00 01 00 00 FF 00 FF 00 FF 01 00 00 01 01 FF 01 
01 FF 01 00 01 01 00 01 01 01 00 00 01 01 FF 01 
01 00 FF FF FF 00 01 01 00 FF FF FF 01 FF 00 00 
00 00 00 FF 00 01 FF 00 FF FF FF FF 01 FF 01 01 
01 00 FF 01 FF FF 01 00 FF 01 01 00 00 FF FF 01 
01 00 00 FF 01 01 01 FF 01 FF 00 01 00 01 01 FF 
FF 01 00 FF FF FF 01 01 00 00 00 01 FF 00 01 FF 
00 00 FF 00 00 00 01 00 00 FF 00 00 01 FF 00 FF 
FF FF 00 01 01 FF 00 FF FF 01 FF FF 00 01 00 01 
01 01 00 FF FF 00 00 FF 01 FF 00 01 00 FF FF 01 
00 00 00 00 FF FF 01 FF 01 01 00 FF 01 01 00 00 
00 01 00 FF 01 00 FF 00 00 01 FF FF 01 FF FF 00 
FF 01 01 FF 01 00 FF 01 00 01 01 00 00 FF 01 01 
00 01 FF FF 00 FF 01 FF 01 01 00 FF 00 01 00 01 
00 01 01 00 00 FF FF FF 01 00 01 FF 00 01 FF FF 
00 00 00 FF 01 FF 00 01 00 FF FF FF FF 01 01 01 
00 01 00 00 01 01 01 00 FF 00 01 FF FF 01 00 FF 
00 00 00 00 00 FF 00 FF 00 00 00 00 FF 00 00 FF 
FF FF 00 01 FF FF FF 00 01 01 01 FF FF 00 00 00 
01 FF 01 00 FF 00 FF 01 01 00 00 00 FF FF 00 00 
FF 01 00 FF FF 01 FF FF 01 01 FF 01 FF 01 00 FF 
FF 01 01 00 FF FF 00 FF 00 01 01 01 01 FF 00 FF 
FF FF 00 00 01 01 00 00 01 00 00 FF 00 00 00 00 
FF 00 FF FF 00 01 00 FF 00 FF FF 01 00 01 FF 01 
01 01 FF 00 01 00 00 00 00 FF 00 FF 00 FF FF 01 
00 00 00 01 FF 01 FF 01 00 00 00 FF FF 00 FF FF 
00 FF 00 00 FF FF 01 00 01 00 01 FF 01 01 00 FF 
FF 01 FF FF 01 00 FF FF 01 01 00 01 00 00 FF FF 
01 00 00 01 FF 00 00 01 FF 00 FF 01 FF 00 00 00 
FF 01 01 FF FF 01 00 01 01 FF 01 00 01 01 01 01 
00 00 01 01 FF 00 00 FF FF 01 FF FF 00 00 01 01 
FF 01 FF 00 01 01 00 01 FF 00 FF 01 00 FF 01 01 
00 01 01 00 00 00 01 00 00 FF 01 FF 01 FF FF FF 
01 FF 00 00 FF 01 01 FF FF 01 00 00 00 00 00 01 
00 00 01 FF FF 01 01 01 01 01 01 01 01 01 01 01 
FF FF 00 00 FF FF 00 00 00 FF 01 01 FF 00 01 00 
00 00 01 01 00 00 00 00 00 00 FF 00 FF 01 FF 00 
01 01 FF FF FF 01 00 00 FF 00 00 00 FF 00 01 01 
FF 01 00 FF 00 01 00 FF 00 01 01 FF 00 01 00 01 
01 01 01 FF 00 00 01 01 01 00 FF 01 FF FF 01 00 
FF FF 00 00 FF FF FF 01 01 01 01 00 01 00 FF 01 
FF FF FF 01 00 01 00 FF 00 FF 00 01 00 FF 01 00 
00 FF 00 01 00 00 01 00 FF 01 FF 01 FF FF 01 00 
00 FF 00 01 FF FF 00 01 FF 01 FF 00 FF 01 FF 01 
01 01 01 01 FF 01 FF 00 00 00 00 01 FF 00 00 00 
00 01 00 01 FF FF FF 00 FF FF 00 FF 01 01 00 01 
00 00 00 00 FF FF 01 01 00 FF 01 00 01 FF 00 01 
00 FF 01 01 FF 01 FF FF FF 01 00 FF 00 FF FF 01 
01 01 00 01 01 00 FF 01 FF FF 00 01 00 01 00 01 
01 01 00 FF 00 FF 00 FF 01 FF FF 01 00 FF 00 FF 
FF 00 FF FF 01 00 01 01 00 01 FF 01 00 01 FF 01 
00 01 FF 00 01 01 00 FF FF 00 01 00 FF 00 01 00 
01 FF 00 FF 01 01 01 FF 00 01 FF FF FF FF FF 00 
FF 00 01 FF 00 FF FF 00 FF 01 FF FF 01 FF 01 00 
00 FF 00 FF FF 01 00 00 01 01 FF 01 FF FF 00 FF 
00 00 01 FF FF 01 00 FF FF FF 00 01 FF FF 00 01 
00 00 FF 01 FF 01 00 FF 00 01 00 00 FF FF FF 01 
00 FF FF 00 01 01 01 FF FF FF FF 00 00 01 00 00 
FF 01 FF 00 00 01 00 FF FF FF FF FF FF FF FF 01 
FF 00 00 FF 01 00 01 01 01 01 00 01 00 FF FF 01 
FF 00 FF 00 00 FF FF 00 FF FF 01 01 00 FF 00 01 
01 FF 01 00 00 00 00 01 01 01 00 FF 00 01 00 00 
FF 00 FF 00 01 FF FF 00 FF FF FF 00 FF 01 FF 00 
01 00 01 01 FF 00 01 01 01 FF 00 FF 01 01 00 FF 
00 00 01 00 FF 01 FF FF FF FF FF 00 01 FF 01 01 
01 FF 00 FF 00 FF FF FF 00 00 FF 00 FF 01 01 FF 
00 01 00 01 01 00 01 01 01 01 01 01 00 01 00 00 
01 00 01 00 01 FF 01 01 00 FF 00 FF 01 00 FF 00 
FF 01 FF 01 00 00 FF FF 00 FF FF FF 01 01 01 FF 
FF 00 01 00 00 00 00 00 01 01 01 FF FF 01 01 FF 
01 FF 00 FF 01 00 00 FF 00 01 01 00 00 00 00 FF 
FF FF 00 FF 01 FF 00 00 01 FF 00 FF FF 00 00 FF 
01 01 00 01 00 FF FF 01 01 01 00 FF 00 FF FF 01 
00 01 01 FF 01 00 01 01 01 01 FF FF FF 01 FF FF 
FF 00 01 00 00 01 01 00 FF 00 00 00 00 FF FF 01 
FF FF FF FF 00 00 FF FF FF 00 FF FF FF 00 00 00 
FF 00 FF 01 00 FF FF 00 01 FF 00 FF FF 01 00 FF 
FF 01 00 01 FF 01 00 FF FF 00 00 01 00 01 00 00 
00 01 00 FF 01 00 01 00 00 FF FF 01 FF 01 00 00 
00 01 FF FF 01 01 FF FF 00 FF FF FF FF 01 00 01 
00 FF 01 01 FF 01 00 01 FF 00 01 00 00 FF FF FF 
FF 00 00 01 00 00 00 FF 00 01 FF FF 01 01 01 00 
FF 01 00 FF 00 01 01 01 01 01 00 FF 01 00 00 FF 
FF 01 FF 00 01 01 00 FF 01 00 FF 01 FF FF FF 00 
01 01 00 01 01 01 00 01 00 00 01 01 01 01 FF 01 
00 00 00 FF 00 01 01 00 00 FF FF FF 00 01 00 00 
00 00 FF 00 FF FF 00 01 00 00 01 00 FF 01 01 01 
00 FF FF FF 00 FF 01 01 FF 01 01 01 01 01 00 01 
FF 01 00 FF 01 FF FF 00 01 FF 00 FF 01 FF 01 00 
00 FF 01 01 FF 00 01 01 01 01 00 01 00 01 00 00 
01 00 01 01 00 FF 01 00 00 00 01 00 00 01 FF 01 
FF FF 01 00 01 01 00 00 01 FF FF 00 FF FF FF FF 
00 00 00 FF 00 00 01 FF 01 00 00 FF FF 01 FF 00 
FF 01 FF FF 01 01 01 01 01 01 FF 00 FF 00 00 01 
01 01 FF 00 FF 01 00 01 FF 00 FF 01 FF 00 FF 00 
00 00 00 00 00 FF FF FF 00 00 00 01 01 00 01 FF 
FF 01 00 01 FF 00 01 FF 01 FF 01 FF 01 00 FF FF 
01 00 00 FF FF 01 01 01 FF 00 00 00 01 00 01 00 
00 FF 00 01 01 FF 01 00 00 FF FF FF 01 FF 00 00 
01 01 FF FF FF 01 01 00 FF 01 FF 00 FF 01 01 01 
00 00 00 FF 00 01 FF FF FF FF FF 01 00 01 FF FF 
FF FF 01 FF FF 00 00 01 FF FF FF 01 01 FF 00 FF 
00 FF 01 FF 01 01 FF FF 01 01 01 00 01 01 00 01 
00 FF 01 00 FF 01 FF 00 01 00 FF 01 00 01 00 FF 
FF FF 00 FF 01 01 FF 01 00 01 FF 00 01 01 00 FF 
00 01 FF 00 00 00 FF 00 FF 00 00 01 00 01 FF 00 
01 00 00 01 00 01 01 00 00 FF 01 00 00 00 FF 01 
FF 00 00 01 01 00 FF 01 FF FF FF 00 01 FF FF FF 
01 01 FF FF 00 00 00 FF 00 00 01 01 FF FF 01 00 
00 FF 00 FF FF 01 00 FF 01 00 FF FF 01 FF 00 01 
FF 00 FF 00 01 01 FF 01 00 FF 00 01 FF 01 00 00 
FF FF 01 FF 01 FF 01 FF 01 FF 00 01 FF 01 00 00 
FF 01 00 00 01 00 FF 00 00 01 00 01 00 FF FF 01 
00 01 FF 00 00 FF 00 00 FF 01 00 01 01 FF FF FF 
01 00 01 01 FF 01 00 01 00 FF 00 00 FF 00 00 01 
01 00 FF 00 01 FF FF 01 FF 00 00 FF FF FF 00 FF 
00 FF FF FF 01 00 01 00 01 00 01 FF FF FF 01 FF 
FF 01 00 01 01 FF 01 FF 00 01 00 01 01 01 FF 00 
01 FF 01 00 01 01 FF 00 00 00 00 00 01 00 01 01 
FF 00 01 00 00 FF 01 00 FF FF 00 FF 01 00 00 00 
00 01 FF 00 00 00 01 01 01 00 00 FF 01 FF 01 00 
FF FF 01 01 00 00 00 00 01 FF 00 00 01 FF FF 00 
01 FF FF 00 00 00 FF 01 01 01 01 FF FF 01 01 00 
FF 00 00 00 FF FF FF FF 00 00 00 00 FF 01 FF 01 
01 FF 00 00 00 01 00 01 01 00 FF FF 00 01 00 01 
00 FF 01 01 01 01 01 FF 01 00 01 01 FF 01 01 FF 
FF FF 01 01 00 00 01 FF 01 01 FF 00 01 FF 01 FF 
00 00 FF FF FF FF 01 01 00 00 00 01 01 01 01 01 
FF FF 01 00 00 01 01 00 01 FF 00 01 00 FF FF FF 
00 00 00 01 00 00 01 00 00 00 FF FF FF 00 FF 00 
00 01 FF FF 01 01 00 01 00 FF 01 01 FF 01 FF 01 
FF 01 01 FF 00 01 00 01 00 01 01 FF FF 01 00 00 
FF 00 00 01 01 00 01 FF 00 00 FF FF 00 00 FF 01 
00 FF FF 01 FF 01 FF 01 01 01 01 01 FF 00 01 00 
FF 00 00 01 01 00 FF 01 FF 01 FF 01 00 00 01 01 
01 FF 01 FF FF 01 01 01 FF 01 01 FF FF 00 01 00 
FF FF 00 FF 00 FF FF FF FF FF 01 00 FF 00 00 FF 
FF FF FF FF 00 00 01 00 FF 00 01 01 00 00 FF 00 
00 01 01 00 FF FF 00 FF 00 FF 01 01 FF FF 01 FF 
01 FF FF FF 01 FF 01 01 00 01 00 01 FF 01 00 01 
FF 01 00 00 01 FF FF 00 01 01 00 FF FF FF 00 01 
00 01 FF FF 01 01 00 00 00 01 01 01 FF FF 01 00 
01 01 01 01 01 01 01 01 01 FF 01 FF 00 FF FF 00 
FF FF 01 01 FF FF 00 01 00 00 01 01 00 01 FF 01 
00 01 01 01 01 00 00 01 01 01 FF 01 FF FF FF 00 
00 FF FF 01 01 01 00 00 FF 00 FF FF FF 00 FF FF 
00 FF FF 00 01 01 FF 01 00 FF 00 FF 00 01 00 01 
FF 01 00 FF FF FF 00 00 00 01 01 FF FF 01 FF 00 
FF 00 FF FF FF 00 FF FF FF 01 FF 00 01 01 01 01 
00 FF FF 00 01 00 FF FF FF 01 00 00 FF 01 00 00 
FF 00 01 01 FF 01 01 FF 01 FF 01 01 01 00 01 FF 
01 FF FF 00 01 00 FF FF 00 00 01 01 00 FF FF 01 
01 FF 00 FF 00 FF FF FF 00 FF FF FF 01 FF 01 01 
00 01 00 FF FF 00 00 01 00 00 01 FF 01 FF 01 01 
00 00 FF 01 01 00 FF 00 01 00 01 00 01 00 00 FF 
FF FF FF 00 01 01 00 00 00 00 00 FF 00 00 FF FF 
FF FF 01 FF 01 00 00 01 FF 00 00 01 FF FF 01 00 
00 FF FF 00 FF 01 FF 00 FF 01 FF 01 FF FF 01 00 
01 FF 01 01 01 00 00 01 FF 01 00 00 FF 00 FF 00 
00 FF 00 01 00 01 FF 00 00 00 00 01 01 00 00 01 
01 FF 00 00 FF 01 FF FF 01 01 01 FF FF 01 01 00 
00 00 00 01 FF 01 00 01 00 FF 01 00 01 FF FF 00 
01 01 FF 01 00 00 FF 01 FF FF FF FF FF FF 01 00 
01 00 00 01 00 FF 00 01 00 FF 00 FF 01 00 01 00 
00 01 FF FF FF FF FF 00 00 FF 00 01 00 00 00 FF 
01 FF FF FF 00 01 00 FF FF 01 FF 01 00 FF FF FF 
FF 00 01 FF FF FF 00 00 00 FF 00 FF 00 FF 00 01 
00 00 FF FF 00 00 FF 01 00 00 01 FF 01 00 00 01 
01 00 FF FF 01 01 01 00 01 00 00 00 00 01 FF FF 
00 00 FF FF FF FF FF 01 01 FF 01 00 00 00 FF 01 
FF FF 01 01 01 01 FF 01 00 01 01 01 01 FF FF FF 
00 00 00 FF FF 00 01 01 01 01 01 00 FF FF FF 00 
01 FF 00 01 FF 01 01 00 00 01 01 FF 01 FF 01 01 
00 FF 01 00 FF 00 01 FF FF 01 00 00 01 01 FF 00 
FF 00 00 FF 01 00 FF FF FF 01 01 01 FF 01 00 00 
FF FF 00 FF 01 00 00 01 FF FF 01 FF FF 01 01 00 
00 00 01 FF 01 01 01 01 01 01 01 01 00 01 01 00 
01 FF FF 01 01 00 01 01 01 01 FF 01 01 01 00 00 
00 00 01 FF FF 01 FF FF 00 00 FF FF FF 01 FF FF 
01 FF FF 01 01 FF 01 01 FF FF 01 FF FF 00 00 01 
01 00 FF 01 01 01 FF 00 FF 00 01 FF 00 01 FF 00 
FF 00 00 01 01 00 01 01 00 01 FF 00 FF 00 00 01 
00 01 01 FF 00 00 00 00 FF 00 01 00 00 01 FF 01 
00 01 FF 00 FF 01 01 00 00 01 FF 00 01 01 00 00 
00 00 01 01 01 FF 00 01 FF FF FF 01 FF 00 01 FF 
00 01 01 00 00 00 01 FF 01 FF 01 01 01 00 FF 00 
FF 01 00 01 FF 01 01 FF FF FF FF 01 01 FF 01 FF 
01 00 00 FF 00 00 00 00 01 01 FF 01 00 FF 00 00 
FF 01 00 FF FF FF 01 FF 00 01 01 00 01 00 00 01 
00 00 FF FF FF FF 00 01 01 01 FF FF 01 00 01 01 
FF FF FF FF 00 01 01 01 01 00 FF 01 00 FF 00 FF 
01 01 FF 01 01 01 01 01 00 FF FF 00 00 01 00 01 
01 00 00 00 01 FF FF 00 01 00 00 FF 01 FF 00 00 
FF 01 FF 01 00 FF 01 FF FF 01 01 01 00 00 01 00 
FF FF 01 FF 00 00 00 FF 01 FF 01 01 01 FF FF 01 
00 00 FF FF 01 01 00 FF 01 00 FF 00 FF 01 00 00 
FF 00 00 00 01 FF 01 01 01 01 01 00 FF 01 FF 01 
01 FF 01 00 FF 00 01 FF FF 01 01 FF 01 FF 00 01 
FF FF 00 FF FF 01 FF 01 00 01 FF 01 FF 01 00 01 
01 00 00 FF 01 FF 00 01 00 00 FF FF 01 01 FF 01 
01 01 00 00 00 00 00 00 00 01 FF 01 01 01 01 01 
00 FF FF 00 01 00 00 FF FF 01 FF FF FF 00 FF 01 
01 00 00 00 FF FF 01 FF FF FF 01 01 FF 01 00 01 
FF 01 FF FF 01 01 FF 01 01 01 01 FF FF 00 01 01 
FF 01 00 00 01 00 01 FF 00 01 01 01 01 00 00 FF 
00 FF FF FF 01 01 01 01 00 FF 01 01 01 FF 01 01 
01 00 00 01 01 FF 01 01 FF 01 01 01 FF 01 FF 01 
01 01 FF 00 01 FF 00 FF 00 FF 01 00 FF 01 FF FF 
00 FF 01 00 FF 00 00 00 FF FF 01 01 01 FF 00 00 
FF 01 00 01 FF 01 FF 01 FF FF FF 01 FF 00 01 01 
00 01 00 FF 00 FF 01 FF 00 01 FF 00 FF 00 FF 00 
00 01 00 01 00 00 01 FF 01 FF 01 00 FF 00 00 01 
00 01 01 FF 01 FF 00 FF 01 00 01 FF FF 00 FF FF 
FF 00 FF FF FF FF 00 00 00 FF 01 00 01 00 00 00 
FF 00 01 FF 00 00 00 01 01 01 FF 01 00 FF FF 00 
01 00 01 FF 00 FF 01 01 00 01 01 00 FF FF FF 00 
00 FF 01 00 00 FF FF 00 FF FF 00 00 00 01 00 00 
FF FF 01 01 01 00 01 FF 00 00 01 00 01 FF FF 00 
00 01 01 FF 00 FF 00 00 FF 00 FF 01 FF 00 00 00 
01 FF 00 00 FF 00 FF 00 00 FF 00 FF 01 01 01 FF 
01 00 00 FF 01 FF 00 FF 01 00 FF 01 FF 01 00 FF 
00 FF 01 00 FF 01 FF 00 00 01 01 FF 01 01 FF 00 
00 01 01 00 00 FF 01 FF FF 01 00 FF FF FF 00 00 
01 00 FF 01 FF 00 FF 01 00 FF 01 00 01 00 FF 00 
00 01 01 01 FF 00 00 FF 00 FF 01 00 FF FF FF 01 
01 FF 01 00 01 FF FF FF 00 FF 01 FF 00 01 01 FF 
00 01 FF 00 00 01 FF FF 01 FF 01 FF 00 FF 00 00 
FF FF 01 FF 01 01 00 FF FF FF 00 01 01 00 FF FF 
FF 00 FF FF FF FF FF FF FF FF FF 00 FF 00 FF 01 
FF 01 01 01 FF 00 FF 00 00 00 00 00 FF 00 01 00 
FF FF 01 00 00 01 00 00 FF 00 00 00 00 00 00 01 
01 FF 00 FF 00 00 00 00 FF 01 FF 00 00 FF FF 00 
00 01 01 01 00 00 01 00 00 00 FF 01 01 00 01 01 
01 FF 01 00 01 00 FF 01 00 00 FF 00 01 FF FF 00 
01 FF FF 00 00 FF 00 01 00 00 01 01 00 00 00 00 
01 01 FF 00 00 00 01 FF FF FF 00 01 00 01 FF 00 
FF 01 00 01 01 01 01 01 00 01 00 01 01 FF 00 00 
01 01 00 FF 00 00 01 01 00 FF 01 FF 01 FF 01 FF 
FF FF FF FF FF FF 01 00 01 00 01 01 00 FF 00 00 
FF FF 01 01 01 00 01 FF FF 01 00 FF 01 00 00 FF 
01 00 00 01 00 00 FF 00 01 FF 00 00 01 FF 01 FF 
FF FF FF FF 01 FF FF FF 01 01 00 01 FF 01 FF FF 
00 01 01 01 FF 00 FF FF 00 00 01 FF 01 01 00 FF 
FF 01 FF 00 FF 00 00 FF 00 01 01 FF 01 00 FF FF 
FF FF FF 01 00 00 FF FF FF FF 01 FF FF FF FF 00 
FF 01 01 FF FF 00 FF 01 00 FF 01 00 01 FF 01 00 
00 FF FF FF 01 00 00 01 01 FF FF FF 00 01 00 00 
00 00 01 01 FF FF 00 00 01 01 01 00 FF 01 01 00 
01 FF 01 01 FF FF 00 01 00 FF 01 FF FF FF 01 00 
01 01 00 01 00 01 00 FF 00 00 01 01 FF FF FF FF 
FF FF 01 FF 01 01 FF FF FF 01 FF FF 00 FF 01 00 
00 FF 00 01 FF FF 01 01 00 01 01 FF 01 00 00 00 
00 01 00 FF 01 FF 00 01 FF FF 01 01 00 01 00 01 
01 FF 01 01 FF 00 01 00 01 01 01 00 FF 00 01 01 
FF 01 FF 01 01 01 01 01 01 01 01 00 00 00 00 FF 
00 00 FF 00 FF FF FF 01 FF 00 00 FF 01 FF 01 FF 
FF FF FF 01 00 01 FF FF 00 01 01 FF 00 01 FF 01 
FF 00 00 00 00 01 00 00 FF FF 01 FF 00 FF FF 01 
00 00 00 01 00 00 00 01 00 FF FF 01 FF 00 01 FF 
FF FF 01 00 00 00 00 00 00 FF 01 01 00 FF 00 FF 
FF 00 01 00 01 FF 01 01 01 01 01 01 00 01 00 00 
FF 00 FF 01 01 01 00 00 FF 00 FF 01 01 FF 01 01 
00 FF 01 00 00 00 FF FF FF 00 00 01 00 FF 00 00 
00 01 00 00 00 FF 01 01 01 FF 01 00 FF 01 01 00 
01 00 FF 00 FF 00 01 FF 01 00 00 FF 00 01 FF FF 
00 01 00 00 01 00 00 00 01 00 FF 01 00 FF 01 00 
01 01 01 01 FF FF 00 FF 00 01 00 FF 01 00 00 00 
FF FF FF 01 01 00 00 00 FF FF 01 01 00 00 FF 00 
00 00 00 01 00 01 FF 01 01 01 FF 01 FF 01 00 00 
FF 01 00 01 FF FF 01 00 00 01 FF 01 00 01 00 01 
FF FF 01 00 FF FF 00 00 01 01 00 01 01 01 FF FF 
00 01 FF 01 FF FF 01 01 01 FF 01 FF 01 00 FF FF 
01 FF 00 01 FF 00 00 01 FF 01 01 FF 00 FF FF FF 
FF FF 00 00 00 00 FF 00 01 01 FF 01 00 FF 01 FF 
00 01 00 01 FF 01 01 00 FF 01 01 01 FF FF 00 FF 
00 01 00 FF 00 01 01 FF 00 01 FF 00 FF 00 00 FF 
00 FF 01 01 00 01 00 00 01 FF FF 01 FF 00 01 00 
00 00 01 FF FF 01 00 01 01 00 FF 01 01 FF FF 00 
00 00 FF 01 00 00 00 FF 00 FF 01 01 00 01 01 00 
00 00 00 01 00 FF 00 FF 01 FF FF 01 FF 00 00 00 
01 00 01 00 FF FF 00 01 FF 00 01 FF 00 00 01 01 
FF FF 00 00 00 FF 00 00 FF 01 00 00 FF FF 00 FF 
01 00 00 FF 00 FF FF FF 00 01 00 FF 00 FF 01 01 
00 00 FF FF 01 01 00 FF 01 00 01 FF 00 00 01 00 
01 00 00 00 01 FF 01 00 FF FF 01 01 00 01 00 00 
00 FF 00 00 01 00 01 01 01 00 00 FF FF FF FF 01 
00 01 00 00 01 00 FF FF 01 FF FF 00 01 00 01 00 
01 01 FF FF FF FF 01 FF 01 00 FF FF 01 FF 01 01 
FF 00 FF FF FF 00 FF FF 01 FF 00 01 FF 01 00 01 
00 01 01 01 01 FF 01 00 01 FF 01 01 01 01 00 FF 
00 00 FF 01 00 01 01 FF 01 01 FF FF 01 FF FF 00 
01 FF FF 01 00 FF 00 00 FF 00 FF FF 00 00 FF 01 
FF 01 FF 01 00 01 00 00 01 00 01 00 00 FF 01 00 
00 FF FF FF FF FF 00 01 00 01 01 01 00 FF 01 01 
01 01 01 00 FF 00 01 01 FF 00 01 01 01 01 00 00 
FF FF 00 00 FF FF 00 00 FF 00 00 00 01 00 FF 01 
01 FF FF 01 00 01 01 01 01 00 01 00 01 00 FF FF 
00 00 00 01 01 FF FF 01 01 01 FF 00 00 01 00 00 
FF 00 FF FF 00 FF FF 00 FF FF 00 01 00 00 01 00 
FF 00 FF FF 01 01 FF 00 01 00 FF FF FF 00 01 01 
01 01 01 01 00 FF FF 00 FF 00 FF 01 FF FF FF 00 
00 01 00 00 00 00 FF FF FF 00 01 00 01 00 FF 01 
01 FF 01 FF FF 01 01 00 00 FF 00 01 FF 01 FF 01 
00 01 00 FF 01 01 00 01 00 00 00 FF 01 FF FF 01 
00 01 FF 01 01 01 FF 00 01 01 FF FF 01 00 00 FF 
00 01 00 FF 01 FF FF FF 00 01 00 00 FF 01 01 00 
01 01 FF 01 FF 01 FF FF 01 00 00 00 FF 01 FF 00 
01 01 01 01 01 01 FF 00 01 00 FF 01 01 01 01 00 
FF 01 FF FF 01 00 FF 01 FF 01 00 00 00 00 01 01 
00 01 01 FF FF 01 01 01 01 FF FF 00 FF 01 01 FF 
01 FF FF FF 01 01 FF 01 00 01 FF 00 01 FF FF FF 
FF 01 01 FF 00 00 FF FF 00 00 00 FF FF 00 FF 00 
00 01 00 00 00 01 FF 01 00 00 00 FF FF 00 00 FF 
00 FF 00 00 01 00 00 01 FF 00 01 00 FF 01 FF FF 
00 00 00 01 00 FF FF FF 01 00 FF 01 00 01 01 01 
FF FF FF FF FF FF 01 00 01 00 FF 01 FF 00 01 FF 
FF 00 FF 01 01 FF FF 00 FF 00 00 00 00 FF FF 01 
01 01 01 FF 01 00 01 00 FF 01 00 01 00 00 01 01 
FF 01 01 01 00 FF FF 01 00 00 FF FF FF 00 FF FF 
FF 01 00 FF 01 FF 01 01 FF 00 00 01 01 00 01 FF 
01 01 01 00 01 FF FF FF FF FF 00 FF 01 01 00 FF 
00 01 00 00 FF 00 00 FF 01 FF FF 01 FF FF 01 01 
01 01 00 01 01 00 FF 01 01 01 FF 00 01 00 01 FF 
00 00 FF 00 FF 00 FF FF 01 00 01 FF 01 01 01 01 
00 00 01 00 01 01 00 01 01 01 00 00 00 FF 01 FF 
01 01 FF 01 00 FF 01 01 00 01 01 FF 00 FF 00 FF 
00 FF 01 01 FF 00 00 01 FF 01 00 01 00 00 FF 00 
00 FF 00 FF 00 00 FF 01 00 FF 00 FF FF 01 00 01 
FF 00 00 FF 01 FF FF FF FF 00 FF 01 01 FF 00 00 
00 01 FF 01 00 FF 01 01 00 00 00 01 00 FF 01 00 
00 00 00 00 00 00 00 FF 01 00 01 FF 01 00 01 FF 
FF FF FF FF 01 FF 01 FF 01 00 FF 00 00 01 01 01 
FF 00 FF FF 01 FF 00 FF 00 00 00 01 FF 00 01 00 
FF 00 00 01 01 01 01 00 FF 01 01 01 01 01 01 00 
00 00 01 00 00 FF 01 FF 00 00 01 00 FF FF FF FF 
00 01 FF FF 00 01 00 01 FF 01 00 FF 01 00 01 FF 
01 00 00 FF 01 01 01 01 FF 00 00 00 01 01 01 FF 
01 01 00 FF FF 00 01 FF FF 00 00 01 00 00 FF FF 
FF 01 01 FF 00 00 FF FF FF 00 00 FF 00 01 FF 00 
00 FF 00 01 00 01 FF 01 00 01 01 01 FF FF 00 00 
01 FF 01 01 01 01 01 01 01 00 01 FF 00 00 01 00 
00 FF FF FF FF 00 FF 01 FF FF 01 00 FF FF 01 FF 
00 FF 01 FF 01 01 FF 00 01 01 01 FF FF 00 00 01 
FF 01 FF FF 00 00 FF 00 00 FF FF 00 00 FF FF FF 
FF 01 FF 00 FF FF FF 01 00 00 01 01 FF 00 01 FF 
00 FF 01 01 01 01 00 FF 01 01 FF 01 FF FF 01 01 
FF 01 FF FF 00 00 01 01 01 01 00 FF 00 00 FF FF 
01 01 FF 00 FF 01 01 FF 01 01 01 01 01 00 00 FF 
01 01 00 FF 00 00 01 00 00 FF 00 FF 01 FF FF 00 
FF 00 FF 00 FF 01 01 01 FF 00 01 FF 00 00 00 FF 
00 FF 00 FF 00 FF 01 01 00 00 01 FF 01 FF 01 FF 
00 FF 00 01 FF 00 00 00 FF FF 00 01 01 FF FF 01 
FF 00 01 01 00 01 00 FF 00 00 01 FF 01 00 00 00 
FF FF FF 00 00 01 01 01 FF FF 01 00 FF 01 FF 00 
00 01 FF FF 01 01 00 00 00 FF 00 FF 01 FF 00 01 
00 01 FF FF 00 FF 00 01 00 00 FF 01 00 FF 01 FF 
FF 01 00 FF FF FF 00 00 FF 00 FF 01 00 01 FF FF 
01 00 00 FF 01 01 FF 00 00 00 FF FF 01 01 FF FF 
FF 01 00 FF 01 FF 00 01 00 01 FF FF 01 00 00 00 
01 01 01 01 01 FF FF 00 01 01 00 01 00 01 FF 01 
01 00 01 00 01 01 01 00 00 FF 00 FF 01 01 01 00 
FF 01 01 01 FF 01 00 01 00 01 01 00 01 01 FF 00 
01 FF 00 00 FF 00 FF 01 01 01 FF 00 FF FF FF FF 
01 01 FF FF 01 00 00 00 00 FF 01 FF FF FF FF FF 
00 01 00 00 00 01 00 FF FF 00 01 00 FF 01 00 FF 
FF 01 00 01 00 01 FF FF 01 00 00 FF 00 00 FF FF 
00 FF 01 01 FF FF FF FF FF 01 00 FF FF FF FF FF 
FF 01 FF 00 01 00 00 FF 01 FF FF 00 01 01 00 00 
FF FF 00 FF 00 FF 00 01 01 FF 01 FF 00 FF FF 00 
FF FF 00 01 01 01 FF 00 FF 00 00 FF 00 01 01 00 
00 00 00 FF 00 FF 01 01 00 00 01 01 01 00 00 FF 
00 01 00 00 FF 00 00 00 FF 01 00 00 01 00 01 FF 
00 01 FF 01 FF 01 01 00 00 01 00 00 FF 00 01 01 
FF FF 00 00 01 FF FF 01 01 01 01 00 01 01 01 FF 
00 FF FF 01 FF FF 00 01 FF FF 00 00 00 00 FF 01 
00 01 01 00 01 01 01 01 00 00 01 00 FF 01 00 FF 
01 01 FF FF FF 00 FF 00 01 00 01 FF 01 FF 00 01 
00 FF 00 00 FF FF 00 00 00 FF 00 01 01 01 FF 01 
01 FF FF 01 00 FF FF 00 01 FF 01 FF 00 00 01 01 
00 00 FF 01 01 01 01 FF FF FF FF FF 01 00 FF 01 
00 FF 01 FF FF 00 01 01 00 00 FF FF FF 01 FF 01 
00 01 01 00 00 00 01 FF 00 00 FF 00 01 FF 00 00 
FF 00 01 00 FF 00 01 01 FF 01 00 00 FF 00 00 01 
00 00 FF 00 FF FF 00 01 00 00 FF 00 FF 01 FF FF 
00 01 FF 01 FF 01 00 00 01 01 FF 01 01 01 01 FF 
FF 01 01 FF FF FF FF 01 FF FF FF FF FF 00 00 00 
FF 00 FF 00 00 FF FF 00 FF FF 00 01 01 00 00 FF 
00 FF 00 01 01 00 01 01 00 FF 01 FF 01 FF 00 01 
01 FF 01 00 FF 01 FF FF FF 01 FF FF 00 01 FF 01 
FF 00 01 01 FF 00 00 01 01 FF 01 00 01 00 01 00 
00 00 FF 01 FF 00 01 00 00 FF 00 01 01 00 00 00 
FF 00 FF FF 01 01 01 FF FF FF 00 01 00 FF 00 FF 
00 01 01 01 00 01 FF 01 FF 00 00 FF FF 01 00 FF 
00 FF FF 00 01 00 01 FF 00 00 FF FF 01 01 00 00 
00 00 00 FF 00 01 01 00 00 FF FF 01 00 01 01 FF 
01 00 01 01 FF 01 FF 01 FF 00 FF 01 FF 01 00 FF 
FF FF FF 00 FF FF 00 01 00 01 00 01 00 01 FF 01 
00 FF 00 00 01 01 00 FF 00 00 FF FF FF FF FF 00 
00 00 FF 00 01 01 00 01 00 00 01 FF FF FF FF 00 
FF 00 FF FF 01 01 00 FF FF 00 FF 00 00 00 FF 01 
00 FF 00 FF 00 00 01 01 01 01 FF 01 FF FF 00 FF 
FF 01 00 01 00 FF FF 01 00 00 FF 00 FF 00 00 00 
01 00 01 FF 01 01 FF 00 01 00 00 01 01 FF FF 01 
01 00 01 FF 00 01 FF 00 FF 00 FF 01 01 01 FF 00 
FF FF 01 FF FF FF 01 01 00 FF 01 FF FF 01 FF FF 
01 01 00 00 01 00 FF FF 01 00 01 00 00 FF 00 00 
00 FF FF 00 FF 01 01 00 00 00 FF 00 00 FF 01 00 
FF 00 00 FF FF 00 FF 01 FF 00 01 01 01 00 FF FF 
00 00 01 01 00 00 00 01 FF 00 00 01 FF 00 01 FF 
FF FF 00 FF 01 01 FF FF FF FF 01 01 00 00 FF FF 
01 FF FF 00 01 01 FF FF FF FF FF FF 00 01 00 00 
FF FF 01 FF FF 00 FF FF 01 FF FF 00 01 00 01 00 
01 FF FF 00 01 00 01 FF 01 01 01 00 01 00 FF 01 
01 00 FF 01 01 00 FF 00 01 00 FF 00 FF 00 FF 01 
00 00 00 00 FF FF 01 01 00 00 00 00 00 FF 00 00 
00 01 FF 00 00 00 FF 00 FF 01 FF FF FF FF FF 00 
01 01 FF FF 00 01 FF 01 01 01 FF FF 01 00 00 00 
00 01 01 01 FF FF FF 00 01 FF 01 01 01 FF 00 00 
FF 01 01 00 01 01 FF 00 01 FF 01 01 FF FF FF 00 
FF FF 00 00 00 01 FF 00 00 FF 01 FF 00 FF 01 00 
FF 00 FF FF 00 FF 00 00 01 00 FF 01 01 01 FF 01 
01 01 FF 00 FF 00 FF 00 00 01 01 01 FF 00 00 00 
FF 00 00 00 01 FF FF 00 00 00 00 FF FF 01 FF FF 
01 01 01 01 00 FF FF FF FF 01 FF FF 00 01 FF 01 
00 00 01 00 FF 01 FF 01 00 01 FF 01 01 00 FF 00 
00 FF 00 FF 00 01 00 00 FF 00 01 01 01 FF 01 FF 
01 00 01 FF 00 00 01 00 FF FF FF 01 01 00 FF 00 
01 01 00 00 01 01 FF FF 01 00 01 01 00 01 01 00 
FF FF 00 FF 00 00 00 00 00 01 00 00 01 01 FF 01 
FF 00 00 01 01 00 FF 01 01 01 00 00 01 00 01 FF 
00 01 00 01 FF FF 00 01 00 FF 00 FF FF 01 01 FF 
00 00 FF FF FF 00 FF FF FF 00 01 FF FF 01 01 01 
01 FF FF 01 01 01 01 FF FF 00 FF 00 FF FF 01 01 
01 FF FF FF 00 00 FF 01 FF FF FF 00 FF 01 00 01 
FF 01 01 01 00 00 01 01 FF FF FF 00 01 FF 00 01 
FF 01 01 00 00 FF 00 01 FF 01 00 00 01 FF 00 01 
FF FF FF 00 FF FF 00 00 01 01 FF 00 FF 01 FF 00 
01 01 FF FF FF 01 FF 00 00 00 FF 00 01 01 FF 01 
FF 00 01 00 01 00 FF 01 00 00 FF 01 FF 00 00 01 
FF 01 FF FF 00 FF 01 FF FF 00 00 FF FF 01 00 00 
01 FF FF 01 00 FF 00 01 01 00 01 FF 01 FF FF FF 
FF FF 00 01 01 01 01 FF FF 00 FF 00 00 00 01 FF 
01 FF FF FF 01 00 00 00 FF 00 01 FF 01 01 00 01 
00 00 00 00 FF 00 00 00 01 01 01 00 01 00 FF 00 
FF FF FF 01 FF 01 FF FF FF FF 00 01 00 FF 00 01 
00 01 00 00 FF FF 01 FF 01 01 01 01 01 01 01 01 
00 FF 00 00 01 01 01 01 FF 00 00 00 01 01 00 FF 
01 01 FF FF 01 FF 00 01 FF FF FF FF 00 01 01 01 
01 00 00 01 FF FF 00 00 01 01 FF 01 01 00 01 00 
FF FF 01 FF 00 FF FF 01 FF FF FF 01 FF FF 01 FF 
00 FF 01 01 01 FF 01 00 FF 01 00 FF 00 00 00 01 
01 00 FF 00 00 00 00 01 01 00 01 01 00 00 01 FF 
FF 01 FF 01 FF 01 00 FF 01 01 FF 00 FF 01 FF FF 
FF 00 01 01 01 FF 00 01 01 FF 00 00 FF 00 00 FF 
FF 01 01 FF 01 FF 00 00 FF 01 01 00 00 00 01 01 
01 00 00 FF FF FF 01 01 00 01 01 01 00 FF 01 FF 
FF 01 00 FF FF FF 01 00 01 01 FF 01 00 FF 01 00 
00 00 00 01 01 01 FF 00 01 01 00 FF 01 00 00 00 
01 FF 00 01 00 FF 01 00 FF 01 FF 00 01 FF 00 00 
01 FF 00 01 01 00 FF 01 FF 00 00 FF 00 01 00 FF 
01 FF FF 00 00 01 FF 01 01 00 01 00 01 FF FF 00 
FF 01 FF 00 FF 00 00 00 FF 01 00 01 01 00 01 01 
00 00 00 FF FF 00 FF FF 01 FF 01 01 00 FF 00 01 
01 01 FF FF 00 01 00 01 01 00 01 00 FF 01 01 00 
FF FF FF 00 01 00 01 01 00 00 01 01 FF 00 00 01 
00 FF 00 FF FF 01 01 01 00 01 01 00 01 00 00 01 
01 00 00 01 01 00 00 00 FF 01 FF 00 FF 01 FF 01 
01 00 01 FF 01 01 FF 00 01 01 00 01 00 01 01 00 
00 00 FF 00 01 01 01 FF 00 FF 00 01 01 FF 00 FF 
01 00 FF 00 01 00 00 00 00 01 00 01 01 FF 00 00 
00 01 01 01 FF 00 FF 01 01 01 01 00 FF 00 01 01 
00 FF 01 FF 01 FF 01 00 01 FF 00 01 FF FF FF FF 
01 01 FF 01 00 FF 01 FF 01 01 01 FF 00 01 FF 01 
FF 01 01 01 01 00 00 01 01 FF 01 00 FF 01 00 FF 
01 00 FF 00 01 FF 01 FF FF 00 FF 00 00 FF 00 01 
01 00 FF 01 00 00 01 00 00 00 01 01 FF 00 FF FF 
01 FF 00 FF 00 FF FF 00 FF FF FF 01 00 01 01 00 
00 FF 00 FF 00 FF 00 00 01 00 FF FF 01 FF 00 FF 
00 FF FF 01 01 FF 00 01 00 01 00 01 00 00 01 FF 
00 FF 00 FF 00 FF 01 00 01 01 FF 01 FF 00 FF 00 
01 00 00 00 01 FF FF 00 01 FF FF 01 00 01 01 00 
FF 00 01 FF 01 00 01 00 FF 01 00 FF 00 01 FF 00 
FF 01 01 FF 01 00 00 01 00 01 00 FF FF 00 00 00 
01 FF 01 00 00 01 FF 01 00 FF FF FF 01 FF 01 FF 
01 00 00 01 01 01 01 00 FF 00 01 00 01 FF 01 FF 
00 FF 01 FF 01 00 FF FF 00 00 00 FF 01 FF 00 FF 
FF FF FF 01 FF 01 00 FF 00 00 01 FF 00 FF FF FF 
FF 00 00 01 01 00 FF FF FF FF 00 00 00 01 00 00 
01 00 01 00 00 00 01 FF 01 01 FF 00 01 01 01 01 
FF 00 01 01 FF 01 FF 00 01 00 01 00 FF 00 FF 00 
FF 01 01 01 00 00 01 FF 00 FF FF FF 01 01 FF FF 
FF 01 FF FF 01 FF 01 01 00 01 00 FF 00 01 01 00 
01 01 FF 00 00 FF 01 FF 00 01 FF FF 01 00 01 FF 
FF 01 01 FF FF 00 FF 01 01 00 FF FF 00 01 01 00 
01 FF FF 00 00 01 00 01 FF 00 FF 01 FF 01 00 01 
FF FF 01 FF 00 FF FF FF FF 01 01 00 00 01 01 00 
FF 01 FF 00 FF 00 00 00 FF FF 00 01 01 01 00 01 
01 00 FF 01 01 01 01 01 00 01 FF FF 00 00 01 01 
00 01 00 00 FF 00 01 01 00 00 00 00 FF 01 00 00 
00 01 FF FF 00 FF FF FF FF 01 00 01 00 00 01 01 
00 00 00 01 FF 00 00 00 FF 01 01 01 01 00 FF 00 
00 FF 01 FF FF 00 01 FF FF 00 FF 00 01 FF 00 00 
00 01 00 00 01 FF FF 01 00 FF 00 FF 01 00 01 00 
01 01 FF FF 00 01 00 00 FF 01 FF 01 FF 00 01 00 
01 00 00 01 00 01 00 FF FF 00 01 FF FF 00 00 FF 
00 00 00 01 00 01 00 00 01 01 01 FF 01 00 01 00 
FF FF FF 00 00 01 FF 00 00 01 00 FF 00 00 FF FF 
FF 01 FF 01 00 01 00 00 01 FF 00 00 01 00 FF 01 
01 FF 01 FF 00 01 FF FF 01 00 FF FF FF 00 FF 00 
FF 01 00 FF 01 01 01 00 FF 01 FF FF 00 FF FF FF 
01 FF 01 00 FF FF 00 01 00 01 01 FF FF 00 00 01 
FF 01 01 FF 00 01 00 01 00 01 FF 01 00 00 00 00 
00 00 FF 00 00 00 FF FF 00 FF FF FF 00 01 01 01 
01 01 01 01 01 01 01 00 00 01 00 FF FF FF 01 01 
00 01 FF FF 01 00 01 FF 01 01 FF 00 FF FF 00 FF 
FF 00 01 FF FF 01 01 FF 01 00 00 00 01 00 FF 00 
00 01 01 FF 00 00 00 00 00 01 FF 01 00 01 FF 01 
00 FF 01 01 FF 01 FF 00 00 01 01 00 FF FF 01 01 
FF 00 01 01 FF 00 00 FF 00 00 FF FF 00 00 01 FF 
01 FF FF FF 01 FF 00 00 01 00 01 00 FF 01 00 FF 
00 00 FF FF FF FF FF 01 00 FF 01 00 01 01 00 01 
01 00 FF 01 01 01 00 00 00 00 FF 00 FF 01 FF 01 
00 00 01 00 00 FF 00 00 01 00 01 01 FF FF 01 FF 
01 01 FF 00 01 00 FF 00 FF 00 FF FF FF 00 00 01 
FF 00 00 01 01 01 FF 01 00 FF 00 01 FF FF FF 01 
FF FF 00 FF 01 01 01 FF 00 01 00 00 00 01 01 01 
00 FF 00 00 FF FF FF 00 FF 00 00 01 01 00 01 01 
01 00 FF 01 FF 01 01 01 01 FF FF 00 FF FF FF 01 
00 01 FF 01 FF FF 00 00 01 FF 00 01 00 FF 01 01 
01 FF 00 FF FF FF 01 FF FF 00 00 00 00 01 FF 01 
01 00 00 01 01 FF 00 01 00 01 01 FF 00 01 01 FF 
FF FF 01 00 FF 00 01 01 01 FF FF 00 FF 01 00 FF 
00 00 FF 00 00 01 00 FF 01 00 FF 00 00 FF 01 00 
FF 01 01 01 FF 01 00 FF FF 01 01 00 01 FF 01 01 
00 01 FF FF 01 01 FF FF FF 00 00 00 01 00 FF FF 
FF 00 01 00 FF 00 01 00 01 01 01 01 01 01 00 01 
FF 00 FF FF 01 01 FF 01 00 01 01 FF 00 01 FF 01 
FF 00 00 01 01 FF FF 01 FF 00 01 FF FF FF 01 FF 
FF 00 00 01 FF 01 00 00 01 00 01 00 00 01 FF 01 
FF 01 00 00 FF 01 FF FF FF 01 FF 00 00 00 01 00 
FF 00 FF FF FF 01 01 FF 00 01 01 FF 00 FF 01 FF 
01 00 01 01 00 FF FF 01 FF 00 FF 00 01 01 FF 01 
00 FF FF FF FF FF 00 00 01 FF 01 01 FF 01 FF FF 
00 01 FF 01 01 FF 00 FF 00 01 01 01 FF 01 01 00 
FF FF 01 00 00 FF FF 00 00 FF FF 00 FF 00 01 00 
FF 01 00 FF FF FF 00 FF 01 00 01 01 00 00 01 01 
01 00 FF 00 01 01 01 00 01 FF 00 01 00 FF 00 01 
FF 01 01 00 FF 00 00 01 FF FF FF 01 FF 01 00 01 
FF FF FF FF 01 FF FF 01 FF 00 00 01 00 FF 00 01 
FF 01 00 FF FF 01 FF 00 00 FF FF 00 FF FF FF 01 
FF 01 FF FF 01 FF 01 FF 00 00 01 00 00 01 FF 01 
00 01 01 01 FF FF 00 00 01 01 FF 01 01 FF 01 FF 
01 FF 00 01 00 FF FF FF 01 FF 00 00 01 01 FF 00 
01 01 00 01 00 FF 00 FF 01 00 FF FF 01 FF 00 01 
00 FF 01 01 00 FF FF 00 FF 01 01 00 01 FF FF 01 
FF 00 01 00 01 00 01 01 01 FF 01 00 00 FF 00 01 
00 00 01 FF 00 FF 00 FF 01 00 01 01 00 01 01 FF 
01 01 01 00 FF 01 FF FF FF FF FF 00 01 00 FF FF 
00 01 FF 01 FF 01 FF 00 00 01 FF FF FF 00 FF 01 
FF FF FF 01 FF 01 01 FF FF 01 00 01 01 01 00 FF 
00 00 FF FF 01 00 00 FF 00 00 FF 00 FF 01 FF 00 
01 01 FF 01 00 FF 01 00 FF 00 01 01 FF FF 01 00 
01 01 01 00 00 FF 01 FF 01 FF 01 FF FF FF 00 01 
FF 01 01 00 FF 01 FF 00 FF 01 FF FF FF FF 01 FF 
01 01 01 01 01 01 FF 01 FF 01 FF FF FF 01 01 FF 
FF 01 01 FF 00 00 00 01 FF 01 01 01 01 01 01 01 
01 00 01 01 FF 01 01 FF FF FF FF FF FF FF 01 00 
FF 00 00 00 01 FF 00 00 FF 00 FF 01 00 01 01 FF 
00 01 FF FF 01 FF 00 01 00 FF FF 00 FF 01 FF 01 
00 00 00 00 01 FF FF FF 00 FF FF 01 FF FF 00 01 
FF 00 01 01 01 00 01 00 00 01 FF 01 01 00 00 FF 
FF FF 01 00 00 01 00 01 01 01 FF 01 FF 00 FF FF 
FF 01 01 00 FF 00 01 01 00 FF FF FF 00 01 01 FF 
FF 00 00 00 00 FF 01 00 01 01 01 FF 00 01 FF 01 
00 FF FF FF 01 01 FF 00 00 FF 01 01 FF 00 FF 00 
FF 00 FF 01 FF FF FF 01 01 01 FF 00 00 00 FF FF 
00 01 00 01 01 00 FF FF FF FF FF 00 01 FF 01 FF 
FF FF FF FF FF FF FF FF FF 00 00 01 FF FF FF 01 
01 00 00 01 FF 01 FF FF FF 00 00 FF 01 00 00 FF 
01 00 FF 01 00 01 FF 01 00 01 FF 01 01 FF 01 01 
01 00 FF FF 01 FF 00 FF 01 01 00 00 FF 01 01 FF 
FF FF FF 01 FF 00 FF 01 FF FF 00 00 FF 00 00 FF 
00 00 FF FF 01 00 00 00 00 01 FF FF 00 FF FF 01 
FF 00 01 01 01 01 00 00 FF FF 01 00 01 00 00 00 
FF FF 00 FF 00 FF 01 FF 01 FF 00 00 FF 00 FF 00 
00 01 FF FF FF 01 00 FF FF 00 01 FF FF 00 00 FF 
01 FF 00 FF FF FF 00 01 00 FF 00 01 01 00 00 00 
00 01 00 00 FF 00 FF FF 01 01 FF 01 00 00 FF FF 
00 01 01 01 FF 00 00 01 01 FF 00 01 00 FF FF FF 
FF 00 FF 00 01 FF 00 01 FF 01 01 01 00 FF 01 FF 
01 01 01 01 00 00 01 FF 00 00 01 FF 00 01 FF 01 
00 00 FF 00 01 01 00 FF 01 FF 01 FF FF 01 FF FF 
01 01 00 FF FF FF 00 00 00 FF 00 00 FF FF FF 00 
00 01 FF 00 01 00 01 01 FF 01 01 00 00 FF 01 00 
FF 00 01 00 00 FF 01 00 00 01 01 00 01 FF FF 00 
01 00 FF 01 FF 01 01 00 00 00 01 00 01 01 01 FF 
00 FF 00 FF 00 00 01 FF 00 00 01 00 01 01 FF FF 
01 FF FF 01 00 01 00 01 FF 00 00 FF 01 01 FF FF 
01 01 00 00 FF FF 00 01 00 00 00 01 00 00 01 FF 
FF 01 FF 01 00 01 00 00 00 00 00 FF FF 01 FF FF 
00 01 00 FF FF 00 FF FF 01 00 01 00 00 00 FF 00 
FF FF FF 00 00 01 01 01 00 01 01 00 01 FF 01 00 
FF 00 01 00 FF FF 00 FF 00 FF 00 FF 01 00 00 01 
FF 01 FF 00 FF FF 00 01 01 00 01 01 01 00 00 FF 
FF 00 01 FF 00 00 FF FF 01 FF 00 00 00 FF 00 01 
00 00 00 01 00 01 00 01 00 FF 01 00 01 00 01 FF 
01 01 00 00 FF 00 00 FF 00 FF 01 00 00 FF 00 01 
01 00 00 FF 00 FF 01 FF 00 01 01 00 FF 00 00 FF 
FF 01 00 00 01 00 01 00 00 00 FF 01 01 FF 01 00 
00 00 01 FF 01 FF FF 00 01 01 01 00 00 00 00 00 
00 FF FF 00 00 01 FF 01 00 00 FF 00 01 01 01 00 
00 FF 00 00 FF FF 01 FF FF 00 00 01 01 FF 00 00 
00 01 FF FF 01 00 FF 00 FF FF 01 01 FF FF 00 01 
00 01 FF 01 01 01 01 00 00 01 FF 00 FF 01 FF 00 
00 00 01 01 01 01 FF FF FF FF FF 00 00 00 FF 01 
01 FF 00 01 01 01 FF 00 00 00 01 00 00 01 FF FF 
01 01 01 01 01 FF FF 01 00 00 FF FF FF 00 FF 01 
00 01 01 00 00 FF FF 01 00 FF 00 01 FF 01 00 01 
01 FF 01 01 01 FF 01 FF 00 00 00 01 01 00 00 01 
00 00 00 FF 01 01 FF FF 01 01 00 FF 01 FF FF 01 
00 FF 00 FF FF 01 00 00 FF FF 00 FF 01 FF 01 FF 
01 01 01 00 00 01 FF 00 01 01 00 01 01 00 01 FF 
00 FF 00 01 01 FF 00 FF FF FF 00 FF FF 00 00 FF 
FF FF 01 00 FF FF 01 FF 01 01 01 01 00 01 FF 00 
FF 01 FF FF 01 00 01 00 00 FF 00 FF 00 01 00 01 
00 FF 00 00 00 01 00 00 00 01 00 FF 00 01 00 01 
01 01 00 01 00 FF FF FF 00 01 00 FF 01 01 FF FF 
01 01 01 00 01 00 FF 00 00 01 00 FF 01 FF FF 01 
01 01 00 FF 01 FF 00 00 01 01 00 01 00 01 FF 01 
01 FF FF 00 01 00 FF FF 00 00 00 FF 00 01 01 00 
00 01 FF 00 01 01 01 01 01 00 01 00 00 01 FF FF 
01 01 01 01 00 01 FF 00 00 01 01 FF 00 FF 01 FF 
01 01 00 01 01 01 00 01 FF FF 00 01 00 FF FF FF 
01 01 FF 00 01 FF 01 FF FF 01 00 01 FF 01 01 01 
01 00 00 01 FF FF 00 00 00 00 FF 01 00 FF FF 00 
FF 00 01 FF FF FF 01 FF FF 00 01 FF FF 01 FF FF 
01 01 01 01 01 01 01 00 FF 01 FF 01 00 01 FF 01 
FF FF 00 00 00 FF 01 01 00 01 FF FF FF FF 00 01 
01 00 01 FF 00 00 00 01 01 FF 00 00 FF 00 00 FF 
FF 01 FF 00 01 01 00 01 01 01 FF 01 FF 00 00 FF 
01 01 00 00 00 FF FF FF 00 01 01 00 00 00 01 01 
FF 01 00 00 01 FF 00 01 01 00 01 FF FF 01 01 01 
00 FF 00 01 FF 01 00 01 01 FF FF 00 01 00 00 00 
FF FF 01 00 00 00 00 00 01 FF FF 01 01 01 01 00 
01 00 00 00 00 FF FF 00 FF 01 FF 00 FF 01 01 00 
FF 00 FF 00 FF 00 00 01 01 00 01 01 FF 01 00 FF 
00 FF 00 FF FF 01 01 00 01 FF 01 01 FF 00 00 00 
FF 01 FF FF 00 01 FF 00 FF FF 00 00 00 FF 01 01 
FF FF 00 00 FF FF 01 01 FF FF 01 01 01 01 FF 00 
01 00 01 FF 00 00 01 00 01 00 00 FF 00 FF 00 00 
00 01 01 01 01 01 01 00 FF 01 FF FF 01 FF 01 00 
01 00 00 FF 01 00 01 01 01 00 FF FF 00 00 01 01 
FF 00 01 FF 01 01 00 01 00 01 FF 00 FF FF 01 01 
FF 00 FF FF FF FF FF FF 00 00 00 01 01 FF 01 FF 
FF 01 00 FF 00 FF FF FF 01 01 00 FF 01 00 01 01 
01 FF FF FF FF FF 00 01 01 FF 01 01 00 01 FF 01 
01 01 01 00 01 FF 00 01 FF FF 01 FF 01 01 FF 00 
FF 00 FF 00 01 00 00 01 00 FF 01 FF 01 FF FF 01 
01 01 FF 00 FF 00 00 00 01 00 01 00 FF FF 00 FF 
00 00 01 00 FF FF 00 00 00 FF 01 01 FF 01 00 01 
FF 01 00 FF 00 FF 01 01 00 01 FF 01 01 01 FF 00 
FF FF 01 FF 00 01 01 FF 01 01 01 00 00 00 00 01 
FF FF FF FF 00 FF 01 FF 01 FF FF 01 FF 00 FF FF 
01 FF 01 00 01 00 00 01 00 00 00 00 00 01 FF 00 
FF 00 01 01 00 00 FF 00 FF FF FF FF 00 00 00 00 
01 FF FF 00 FF 01 00 00 01 FF 01 FF FF 00 01 00 
01 01 FF 01 00 00 FF 00 01 01 00 01 FF 00 FF FF 
00 00 FF 00 01 00 00 00 01 FF 00 FF 00 00 00 01 
00 FF 00 FF 00 01 01 00 00 01 FF FF FF 00 00 00 
FF 00 00 01 00 01 00 00 FF FF 00 FF 00 FF 01 FF 
FF FF 00 FF 01 FF 01 01 01 01 01 01 00 00 01 01 
FF FF 01 00 FF FF FF FF FF 01 FF FF 01 01 00 00 
FF 01 00 00 FF 00 FF 00 00 FF 00 01 00 FF 01 00 
00 00 FF 00 01 FF FF FF 01 FF FF FF 00 01 00 01 
01 FF FF FF 01 FF 00 FF FF 01 01 FF 00 00 01 FF 
00 FF 01 00 00 FF 00 01 FF FF FF 01 01 00 01 FF 
01 01 FF 00 00 01 00 01 01 00 01 FF 00 01 00 01 
FF 00 FF 00 00 01 00 01 FF 00 FF 00 FF 01 00 FF 
01 01 01 00 00 00 00 FF FF FF 01 00 FF 00 00 FF 
FF 01 FF 01 01 01 01 FF 00 01 01 01 01 FF FF 01 
01 01 00 00 00 01 01 01 00 01 00 00 FF 01 FF 00 
00 00 00 00 FF 00 00 01 FF FF 01 FF 00 FF FF 00 
FF 00 01 01 01 01 00 FF 00 01 01 FF 01 FF 01 FF 
00 00 FF FF 01 00 01 FF FF 01 00 00 FF 00 00 00 
00 FF FF FF FF FF 00 FF FF 00 00 FF 01 FF 00 FF 
01 00 00 00 FF 01 FF 00 01 00 FF FF 00 00 01 FF 
FF FF 00 FF FF 01 FF 00 FF 01 00 01 FF 01 00 01 
01 01 01 FF 00 01 00 01 00 00 01 01 00 00 01 00 
01 FF 01 00 FF 00 01 00 FF 00 00 FF 00 FF 00 FF 
FF FF FF 01 FF 01 01 00 01 00 00 FF FF 00 01 FF 
01 00 00 FF 01 00 00 00 FF 00 01 01 00 FF 00 01 
00 00 FF 00 01 01 00 00 00 FF 01 01 00 01 FF 00 
FF 01 01 00 FF 00 FF 00 01 01 00 00 FF 01 00 00 
00 00 00 FF 00 01 01 FF 01 00 FF FF FF 00 FF 01 
FF 01 00 01 00 00 FF 00 FF 00 FF 00 00 00 FF FF 
00 01 FF FF 00 00 FF 00 FF 00 01 01 01 01 01 00 
01 FF FF 00 01 00 FF FF 00 FF 01 01 01 FF 01 FF 
01 00 FF 00 01 00 01 01 FF 00 01 FF 01 00 00 00 
00 01 01 00 01 01 01 FF FF 01 01 FF 01 01 FF 01 
FF 00 00 FF 01 FF FF FF 01 FF 00 00 00 FF 00 00 
FF FF 01 FF 00 01 FF 01 00 01 01 00 01 00 00 01 
01 FF FF 01 00 00 FF 00 01 01 FF 00 01 00 01 FF 
FF FF FF 01 FF FF 00 FF 00 00 01 FF 01 00 00 01 
01 00 01 00 FF FF 01 01 01 FF 01 01 01 00 01 FF 
01 00 01 FF 01 FF 00 FF 01 FF 00 01 01 01 01 01 
00 01 FF 01 01 FF 01 01 FF 00 01 FF 00 01 FF FF 
FF 01 00 FF 00 01 00 FF 00 01 FF FF 01 FF FF 00 
01 FF FF 01 00 01 01 01 01 01 FF FF 00 00 00 FF 
00 00 00 01 FF 01 00 01 FF 01 FF 01 01 00 FF 01 
01 00 01 00 01 01 FF 00 00 00 01 01 FF FF FF 00 
00 00 00 FF 01 01 01 01 00 FF 00 FF 01 FF FF 01 
00 01 FF FF 01 01 00 FF 00 FF 00 00 01 00 FF FF 
00 00 FF FF 00 00 01 FF 00 00 01 00 00 FF FF FF 
00 01 00 FF 00 FF 00 01 00 01 FF 00 00 FF 01 01 
FF FF FF 01 01 01 00 01 01 00 FF FF 00 01 FF 01 
00 01 FF 01 FF 00 01 01 00 FF 00 FF 00 00 00 00 
01 00 01 01 01 FF 01 00 01 01 00 FF 00 FF FF FF 
FF FF FF 00 01 01 00 00 01 FF 01 00 00 FF FF 01 
FF 01 01 01 FF 00 00 01 FF FF FF FF FF 00 00 00 
01 01 01 01 00 00 00 00 00 FF 01 00 01 01 00 01 
FF FF 01 00 00 FF 00 01 FF 01 FF 01 00 01 FF FF 
00 00 01 01 FF 00 00 01 00 FF 00 FF 00 01 FF 01 
01 01 FF 00 01 00 01 00 00 01 FF 01 01 00 FF FF 
01 FF 00 FF 00 01 FF 00 00 01 00 01 01 FF 01 01 
01 01 00 FF 01 00 00 FF FF 01 00 FF 00 01 00 00 
FF 01 01 00 01 FF FF FF FF 01 FF 01 FF FF 00 01 
01 FF FF 00 00 01 FF FF 00 01 FF FF 00 01 01 00 
01 01 00 01 FF 00 FF FF 00 FF 01 00 FF 00 01 FF 
FF 01 FF 00 01 FF 00 00 FF 01 01 00 01 01 00 01 
01 FF 00 01 01 00 FF 01 01 FF 00 FF 00 FF FF 00 
00 FF 00 00 00 FF 01 00 FF FF 00 FF 01 FF 01 01 
00 FF 01 FF 01 01 01 00 01 00 00 01 01 00 FF FF 
01 01 01 00 FF 01 00 00 FF 01 00 01 FF 00 FF 00 
01 01 00 00 FF 01 01 01 00 FF 01 FF 01 00 01 01 
FF 00 00 FF 00 01 00 00 01 FF 01 01 00 FF FF FF 
FF 01 01 FF 00 00 00 01 01 FF 00 01 00 00 00 01 
FF FF FF FF FF FF 00 01 FF 00 00 FF 01 01 00 FF 
01 00 FF 00 FF 00 01 FF FF 00 FF 01 01 01 01 FF 
FF FF FF FF FF FF 00 00 01 FF 00 01 FF FF 01 FF 
00 01 00 01 01 FF 01 FF 00 01 01 00 01 01 FF FF 
FF FF 00 FF 00 01 01 00 FF 00 00 00 01 FF 00 00 
FF 01 FF FF 00 FF FF FF FF FF FF FF FF FF FF FF 
00 01 00 FF 01 FF 01 FF 00 FF 00 FF FF 01 00 00 
FF 01 01 01 FF FF FF FF 00 FF 00 00 00 01 00 FF 
01 FF 00 01 00 FF 01 FF 00 00 00 01 00 FF FF 01 
FF FF 00 00 00 FF 01 01 FF 00 00 FF FF FF 00 FF 
00 01 FF FF FF 01 FF 00 00 01 FF FF FF 00 FF 00 
01 FF FF FF FF FF 01 FF 00 00 00 01 01 01 FF 00 
00 FF 00 01 00 01 FF 01 01 00 FF FF FF 00 00 FF 
00 01 FF 00 01 FF 01 00 01 00 01 01 FF 01 00 FF 
FF FF 01 00 01 00 00 00 01 FF 01 FF 01 01 FF FF 
00 00 01 01 01 01 00 01 00 FF 00 FF FF 01 FF 00 
FF FF FF 01 00 00 01 01 01 00 FF 00 FF 01 01 01 
FF 01 01 FF 01 FF 01 00 01 FF 01 01 FF 01 00 FF 
00 00 00 FF FF FF 01 FF 00 00 01 01 FF 01 01 00 
00 01 01 00 01 01 00 01 FF FF 00 00 FF 01 FF 01 
00 00 01 FF 00 FF FF FF 01 01 01 01 01 01 00 00 
00 00 FF 01 00 00 00 01 01 00 00 FF 00 00 01 FF 
01 01 FF 00 01 00 01 00 00 01 00 00 01 00 FF FF 
01 FF FF 00 01 01 FF 00 00 01 00 01 00 FF FF 01 
01 FF FF FF 01 FF 01 01 FF 00 FF 01 FF 00 FF 01 
00 01 00 FF 01 01 01 FF 00 FF 01 FF 00 FF 01 01 
00 FF FF 01 00 01 00 01 00 01 00 00 FF 01 01 01 
00 FF 00 00 FF FF 00 01 01 00 FF 00 01 FF 00 00 
00 00 FF 01 01 01 00 FF 00 FF FF 01 00 FF 01 FF 
00 FF 01 00 00 FF 00 FF 01 00 FF 00 01 00 FF 00 
FF 00 00 FF 00 00 00 01 01 00 FF 00 00 01 01 01 
FF 01 01 01 01 FF 00 FF 01 00 01 01 01 FF 00 FF 
01 FF FF FF 01 01 FF 00 00 FF FF 00 FF FF 00 00 
01 FF 01 01 00 FF 01 00 00 01 FF 00 01 FF FF 01 
FF 00 FF FF 00 00 00 FF 01 01 01 00 FF FF FF 01 
01 01 FF FF 01 01 01 00 01 FF 00 FF FF 01 01 00 
FF FF 00 FF 01 00 FF 01 00 FF 00 01 FF 01 01 FF 
00 01 FF 01 FF FF 00 01 00 FF FF 01 01 00 00 00 
01 FF 00 00 00 01 00 FF 01 FF FF FF 01 01 00 00 
FF 01 00 FF FF 00 FF 01 00 00 01 01 FF FF 00 01 
01 01 00 FF 01 01 00 01 01 01 01 01 FF FF 01 FF 
00 FF FF 01 00 00 01 00 01 00 00 FF FF 01 01 01 
01 FF FF 00 00 FF FF 00 01 FF 00 01 01 FF 01 FF 
00 FF 01 00 01 00 01 01 01 00 FF 01 FF FF 01 01 
00 FF 00 FF FF 00 00 01 00 FF FF 00 00 01 00 FF 
FF FF 01 FF 01 01 01 FF FF 01 FF FF 00 FF 01 01 
00 00 FF 00 01 00 00 00 01 00 FF 00 01 01 00 FF 
00 FF FF FF 01 FF 00 01 00 01 FF 01 FF FF 01 00 
00 01 FF 00 00 01 00 00 01 01 FF 00 00 00 01 01 
FF FF 00 FF FF FF 00 01 01 00 00 FF 01 FF 00 FF 
FF 01 01 01 01 00 00 00 FF 00 FF 00 00 01 01 01 
01 00 01 FF 00 FF FF 01 01 00 01 00 FF 01 01 FF 
00 01 FF FF FF 01 01 00 00 01 00 01 00 00 00 00 
01 01 01 00 01 01 00 00 FF 00 FF 00 00 00 01 01 
00 FF 00 01 FF FF 00 01 00 01 01 01 FF 01 00 FF 
00 FF 01 FF 01 FF FF FF 01 00 01 FF FF 01 FF 01 
FF 01 01 00 FF FF FF 00 FF FF 00 00 01 FF 01 FF 
FF 00 01 FF 01 01 00 01 00 00 FF 01 00 FF 00 01 
FF FF FF 00 00 00 01 01 00 00 00 01 00 FF 01 01 
01 00 FF 01 00 01 00 FF 00 01 01 FF FF 00 01 00 
01 FF FF FF 00 01 FF FF 00 00 01 FF 01 FF FF 00 
01 FF FF 00 FF FF 00 01 FF 00 FF 00 01 01 01 01 
01 FF 01 00 FF 01 01 01 00 FF 01 FF FF FF 01 01 
00 00 00 01 00 01 01 01 00 01 FF 00 01 00 FF 00 
00 FF FF 01 FF FF 00 01 00 01 FF 00 01 FF 00 00 
01 FF 01 FF FF 00 01 FF 01 FF 00 00 00 FF 00 FF 
00 00 01 00 01 01 00 FF 01 FF 01 00 00 01 00 FF 
01 FF FF FF 01 FF FF 00 FF FF 00 FF FF 01 FF 00 
00 FF FF 01 FF 01 01 01 FF FF 01 00 01 FF 00 01 
00 01 01 FF FF FF FF 00 FF 00 00 00 FF 01 01 01 
00 01 00 00 01 01 01 01 01 00 FF 01 01 01 00 00 
00 00 01 00 01 01 FF FF 00 01 00 01 01 00 01 FF 
01 FF 01 00 01 00 01 01 FF FF 01 FF FF 00 00 01 
FF 00 01 01 00 01 FF FF 00 01 01 00 00 00 00 FF 
FF 01 01 FF 00 00 00 01 FF FF 01 00 01 01 FF FF 
00 01 01 01 01 FF 01 01 00 FF FF 01 01 FF 01 01 
01 01 00 FF 00 01 FF 01 FF 00 FF FF FF FF FF 01 
FF 00 00 FF 00 01 01 01 01 FF 01 01 00 01 FF FF 
01 00 00 00 00 01 FF 01 FF FF FF 00 FF FF FF 00 
00 01 01 00 00 01 00 00 01 00 00 FF FF 01 00 FF 
00 00 00 01 FF 00 00 00 01 00 FF 00 FF FF 01 00 
01 01 FF 01 FF 01 00 FF FF FF 01 00 01 FF 01 FF 
00 FF FF 01 FF FF FF 01 01 FF FF 01 00 00 01 01 
00 01 00 00 00 01 01 01 FF 00 00 01 01 00 00 00 
01 00 00 01 00 01 01 00 FF FF 00 01 00 FF 01 FF 
FF FF 00 01 FF FF FF FF 01 00 00 01 FF 01 00 01 
00 01 01 00 01 01 FF FF 01 00 FF 00 01 01 01 FF 
FF FF FF FF 01 FF 00 01 01 FF 00 01 FF 01 FF 01 
01 01 FF 00 01 FF 01 00 FF 01 FF FF 01 01 00 01 
00 00 FF 00 FF 01 FF 01 01 01 FF FF 01 FF 01 01 
FF FF 00 01 00 00 00 01 01 01 01 00 01 00 01 FF 
FF 01 00 FF 01 FF FF 01 01 FF 01 01 00 00 01 00 
01 00 00 01 01 FF 00 00 FF 01 00 01 FF FF 00 00 
01 01 01 01 FF FF 00 01 00 FF FF 00 01 01 01 01 
FF 01 01 01 01 00 01 01 00 FF 01 FF FF FF 00 FF 
00 01 01 00 FF 00 01 00 00 01 01 00 00 FF FF 01 
01 FF 00 01 01 00 01 00 00 00 00 01 FF FF 01 00 
01 01 01 FF FF 01 00 01 00 01 00 FF FF 01 01 FF 
FF 01 01 FF FF 01 00 FF FF FF 01 FF 00 FF 01 00 
01 FF 00 00 01 FF 00 01 FF 01 01 00 01 FF 00 FF 
01 00 00 01 FF FF FF 01 00 FF FF FF 00 FF 00 00 
00 FF 01 FF 01 00 01 FF 00 FF 01 00 FF 00 00 FF 
FF FF FF 00 00 00 FF FF 00 01 00 FF 01 FF 00 FF 
00 00 00 00 FF 01 00 00 01 FF 00 FF FF 01 FF FF 
00 FF 01 FF 00 00 FF FF FF 00 FF FF FF 01 00 01 
00 01 FF 01 01 01 00 01 FF 01 01 00 FF FF 01 00 
00 00 01 FF 01 01 01 FF 01 FF FF 01 FF 00 01 00 
01 01 00 00 00 FF 00 01 FF 00 FF FF 01 01 01 00 
01 00 00 01 01 00 FF 00 01 FF 00 01 FF FF 01 01 
FF FF 00 00 FF FF 01 00 01 FF 01 00 00 01 FF FF 
00 00 FF FF FF FF 00 FF 01 FF 01 01 FF 00 01 00 
01 00 00 FF 01 FF 01 00 00 01 FF 01 01 FF FF FF 
01 00 00 FF 01 FF FF 00 00 FF 00 01 00 FF 00 00 
FF 01 01 01 FF 00 FF 00 00 00 01 FF 01 FF 01 00 
01 FF 01 01 00 01 FF 01 FF FF FF FF FF 00 00 FF 
00 FF FF 00 FF 00 FF 01 01 FF FF 00 00 FF 00 00 
00 FF FF 01 FF 01 01 01 01 FF 01 FF 00 FF 01 FF 
01 01 01 FF 00 FF 01 00 00 FF 00 FF FF 01 00 00 
FF FF 00 00 FF 00 FF 01 00 FF FF FF 00 01 00 00 
FF FF 00 01 FF FF 00 01 00 01 01 00 01 01 00 01 
FF 01 01 FF 00 FF FF FF 00 FF FF 01 00 00 FF 01 
01 00 00 FF 01 FF FF FF FF FF FF FF FF 00 00 FF 
00 FF FF 01 FF FF 01 00 01 FF 00 00 01 01 FF 01 
00 01 01 00 01 01 01 FF 00 01 00 00 00 FF 01 FF 
FF 01 01 00 00 01 00 00 FF FF 01 01 FF 01 00 01 
00 00 FF 00 00 00 01 01 00 00 01 FF 00 00 FF 01 
00 00 00 FF 00 01 00 01 FF FF 00 00 FF 00 FF 00 
FF 01 00 01 FF FF 01 01 01 01 FF 00 FF 01 FF 01 
FF 00 FF 01 01 01 00 FF FF 00 00 00 01 01 00 01 
00 01 00 01 FF 00 01 01 FF 01 00 00 00 00 00 01 
FF 01 01 FF 00 FF FF 01 00 00 00 00 00 01 FF FF 
01 FF FF 01 01 01 01 00 01 FF 01 01 01 00 00 FF 
00 00 00 FF 01 00 FF 00 00 01 FF FF 01 00 FF 00 
01 00 FF 01 00 FF FF 00 FF FF FF FF FF 01 00 00 
00 01 00 00 FF FF FF 01 01 00 01 01 FF 00 FF FF 
01 01 01 00 01 FF FF 00 01 00 00 01 FF 01 FF 01 
01 FF 00 00 FF 01 FF FF FF 00 01 00 01 00 01 00 
