@00000000
000000000000000100000002000000030000000400000005000000060000000700000008 000000090000000A0000000B0000000C0000000D0000000E0000000F0000001000000011 
00000012000000130000001400000015000000160000001700000018000000190000001A 0000001B0000001C0000001D0000001E0000001F00000020000000210000002200000023 
0000002400000025000000260000002700000028000000290000002A0000002B0000002C 0000002D0000002E0000002F000000300000003100000032000000330000003400000035 
000000360000003700000038000000390000003A0000003B0000003C0000003D0000003E 0000003F0000004000000041000000420000004300000044000000450000004600000047 
00000048000000490000004A0000004B0000004C0000004D0000004E0000004F00000050 000000510000005200000053000000540000005500000056000000570000005800000059 
0000005A0000005B0000005C0000005D0000005E0000005F000000600000006100000062 000000630000006400000065000000660000006700000068000000690000006A0000006B 
0000006C0000006D0000006E0000006F0000007000000071000000720000007300000074 00000075000000760000007700000078000000790000007A0000007B0000007C0000007D 
0000007E0000007F00000080000000810000008200000083000000840000008500000086 0000008700000088000000890000008A0000008B0000008C0000008D0000008E0000008F 
000000900000009100000092000000930000009400000095000000960000009700000098 000000990000009A0000009B0000009C0000009D0000009E0000009F000000A0000000A1 
000000A2000000A3000000A4000000A5000000A6000000A7000000A8000000A9000000AA 000000AB000000AC000000AD000000AE000000AF000000B0000000B1000000B2000000B3 
000000B4000000B5000000B6000000B7000000B8000000B9000000BA000000BB000000BC 000000BD000000BE000000BF000000C0000000C1000000C2000000C3000000C4000000C5 
000000C6000000C7000000C8000000C9000000CA000000CB000000CC000000CD000000CE 000000CF000000D0000000D1000000D2000000D3000000D4000000D5000000D6000000D7 
000000D8000000D9000000DA000000DB000000DC000000DD000000DE000000DF000000E0 000000E1000000E2000000E3000000E4000000E5000000E6000000E7000000E8000000E9 
000000EA000000EB000000EC000000ED000000EE000000EF000000F0000000F1000000F2 000000F3000000F4000000F5000000F6000000F7000000F8000000F9000000FA000000FB 
000000FC000000FD000000FE000000FF0000010000000101000001020000010300000104 00000105000001060000010700000108000001090000010A0000010B0000010C0000010D 
0000010E0000010F00000110000001110000011200000113000001140000011500000116 0000011700000118000001190000011A0000011B0000011C0000011D0000011E0000011F 
000001200000012100000122000001230000012400000125000001260000012700000128 000001290000012A0000012B0000012C0000012D0000012E0000012F0000013000000131 
00000132000001330000013400000135000001360000013700000138000001390000013A 0000013B0000013C0000013D0000013E0000013F00000140000001410000014200000143 
0000014400000145000001460000014700000148000001490000014A0000014B0000014C 0000014D0000014E0000014F000001500000015100000152000001530000015400000155 
000001560000015700000158000001590000015A0000015B0000015C0000015D0000015E 0000015F0000016000000161000001620000016300000164000001650000016600000167 
00000168000001690000016A0000016B0000016C0000016D0000016E0000016F00000170 000001710000017200000173000001740000017500000176000001770000017800000179 
0000017A0000017B0000017C0000017D0000017E0000017F000001800000018100000182 000001830000018400000185000001860000018700000188000001890000018A0000018B 
0000018C0000018D0000018E0000018F0000019000000191000001920000019300000194 00000195000001960000019700000198000001990000019A0000019B0000019C0000019D 
0000019E0000019F000001A0000001A1000001A2000001A3000001A4000001A5000001A6 000001A7000001A8000001A9000001AA000001AB000001AC000001AD000001AE000001AF 
000001B0000001B1000001B2000001B3000001B4000001B5000001B6000001B7000001B8 000001B9000001BA000001BB000001BC000001BD000001BE000001BF000001C0000001C1 
000001C2000001C3000001C4000001C5000001C6000001C7000001C8000001C9000001CA 000001CB000001CC000001CD000001CE000001CF000001D0000001D1000001D2000001D3 
000001D4000001D5000001D6000001D7000001D8000001D9000001DA000001DB000001DC 000001DD000001DE000001DF000001E0000001E1000001E2000001E3000001E4000001E5 
000001E6000001E7000001E8000001E9000001EA000001EB000001EC000001ED000001EE 000001EF000001F0000001F1000001F2000001F3000001F4000001F5000001F6000001F7 
000001F8000001F9000001FA000001FB000001FC000001FD000001FE000001FF00000200 000002010000020200000203000002040000020500000206000002070000020800000209 
0000020A0000020B0000020C0000020D0000020E0000020F000002100000021100000212 000002130000021400000215000002160000021700000218000002190000021A0000021B 
0000021C0000021D0000021E0000021F0000022000000221000002220000022300000224 00000225000002260000022700000228000002290000022A0000022B0000022C0000022D 
0000022E0000022F00000230000002310000023200000233000002340000023500000236 0000023700000238000002390000023A0000023B0000023C0000023D0000023E0000023F 
000002400000024100000242000002430000024400000245000002460000024700000248 000002490000024A0000024B0000024C0000024D0000024E0000024F0000025000000251 
00000252000002530000025400000255000002560000025700000258000002590000025A 0000025B0000025C0000025D0000025E0000025F00000260000002610000026200000263 
0000026400000265000002660000026700000268000002690000026A0000026B0000026C 0000026D0000026E0000026F000002700000027100000272000002730000027400000275 
000002760000027700000278000002790000027A0000027B0000027C0000027D0000027E 0000027F0000028000000281000002820000028300000284000002850000028600000287 
00000288000002890000028A0000028B0000028C0000028D0000028E0000028F00000290 000002910000029200000293000002940000029500000296000002970000029800000299 
0000029A0000029B0000029C0000029D0000029E0000029F000002A0000002A1000002A2 000002A3000002A4000002A5000002A6000002A7000002A8000002A9000002AA000002AB 
000002AC000002AD000002AE000002AF000002B0000002B1000002B2000002B3000002B4 000002B5000002B6000002B7000002B8000002B9000002BA000002BB000002BC000002BD 
000002BE000002BF000002C0000002C1000002C2000002C3000002C4000002C5000002C6 000002C7000002C8000002C9000002CA000002CB000002CC000002CD000002CE000002CF 
000002D0000002D1000002D2000002D3000002D4000002D5000002D6000002D7000002D8 000002D9000002DA000002DB000002DC000002DD000002DE000002DF000002E0000002E1 
000002E2000002E3000002E4000002E5000002E6000002E7000002E8000002E9000002EA 000002EB000002EC000002ED000002EE000002EF000002F0000002F1000002F2000002F3 
000002F4000002F5000002F6000002F7000002F8000002F9000002FA000002FB000002FC 000002FD000002FE000002FF000003000000030100000302000003030000030400000305 
000003060000030700000308000003090000030A0000030B0000030C0000030D0000030E 0000030F0000031000000311000003120000031300000314000003150000031600000317 
00000318000003190000031A0000031B0000031C0000031D0000031E0000031F00000320 000003210000032200000323000003240000032500000326000003270000032800000329 
0000032A0000032B0000032C0000032D0000032E0000032F000003300000033100000332 000003330000033400000335000003360000033700000338000003390000033A0000033B 
0000033C0000033D0000033E0000033F0000034000000341000003420000034300000344 00000345000003460000034700000348000003490000034A0000034B0000034C0000034D 
0000034E0000034F00000350000003510000035200000353000003540000035500000356 0000035700000358000003590000035A0000035B0000035C0000035D0000035E0000035F 
000003600000036100000362000003630000036400000365000003660000036700000368 000003690000036A0000036B0000036C0000036D0000036E0000036F0000037000000371 
00000372000003730000037400000375000003760000037700000378000003790000037A 0000037B0000037C0000037D0000037E0000037F00000380000003810000038200000383 
0000038400000385000003860000038700000388000003890000038A0000038B0000038C 0000038D0000038E0000038F000003900000039100000392000003930000039400000395 
000003960000039700000398000003990000039A0000039B0000039C0000039D0000039E 0000039F000003A0000003A1000003A2000003A3000003A4000003A5000003A6000003A7 
000003A8000003A9000003AA000003AB000003AC000003AD000003AE000003AF000003B0 000003B1000003B2000003B3000003B4000003B5000003B6000003B7000003B8000003B9 
000003BA000003BB000003BC000003BD000003BE000003BF000003C0000003C1000003C2 000003C3000003C4000003C5000003C6000003C7000003C8000003C9000003CA000003CB 
000003CC000003CD000003CE000003CF000003D0000003D1000003D2000003D3000003D4 000003D5000003D6000003D7000003D8000003D9000003DA000003DB000003DC000003DD 
000003DE000003DF000003E0000003E1000003E2000003E3000003E4000003E5000003E6 000003E7000003E8000003E9000003EA000003EB000003EC000003ED000003EE000003EF 
000003F0000003F1000003F2000003F3000003F4000003F5000003F6000003F7000003F8 000003F9000003FA000003FB000003FC000003FD000003FE000003FF0000040000000401 
00000402000004030000040400000405000004060000040700000408000004090000040A 0000040B0000040C0000040D0000040E0000040F00000410000004110000041200000413 
0000041400000415000004160000041700000418000004190000041A0000041B0000041C 0000041D0000041E0000041F000004200000042100000422000004230000042400000425 
000004260000042700000428000004290000042A0000042B0000042C0000042D0000042E 0000042F0000043000000431000004320000043300000434000004350000043600000437 
00000438000004390000043A0000043B0000043C0000043D0000043E0000043F00000440 000004410000044200000443000004440000044500000446000004470000044800000449 
0000044A0000044B0000044C0000044D0000044E0000044F000004500000045100000452 000004530000045400000455000004560000045700000458000004590000045A0000045B 
0000045C0000045D0000045E0000045F0000046000000461000004620000046300000464 00000465000004660000046700000468000004690000046A0000046B0000046C0000046D 
0000046E0000046F00000470000004710000047200000473000004740000047500000476 0000047700000478000004790000047A0000047B0000047C0000047D0000047E0000047F 
