@00100000
00 00 00 FF FF FF FF 00 FF 00 00 FF 00 FF 00 FF 
00 00 00 FF 00 FF FF 00 FF 00 FF 00 00 00 FF FF 
00 00 FF 00 FF 00 FF FF 00 FF 00 FF 00 00 FF FF 
00 FF 00 00 FF 00 FF 00 00 FF FF 00 00 00 00 FF 
00 00 00 00 00 00 00 FF 00 FF 00 00 00 00 00 00 
00 00 00 FF FF FF 00 00 FF 00 00 FF 00 00 00 00 
00 00 00 00 00 00 FF 00 FF 00 00 FF FF 00 00 FF 
00 00 00 00 FF FF 00 00 00 FF 00 FF 00 00 00 00 
00 00 00 FF FF 00 00 FF FF 00 00 00 FF 00 00 00 
FF FF FF FF 00 00 00 00 00 00 FF 00 00 00 00 00 
00 00 00 00 00 00 00 00 FF FF 00 00 00 FF 00 00 
00 00 FF FF 00 FF FF FF 00 FF 00 00 00 00 00 00 
FF FF 00 00 00 FF 00 00 00 FF 00 FF 00 00 00 00 
00 00 FF 00 FF FF 00 FF 00 00 FF FF FF 00 FF FF 
FF FF FF 00 FF 00 FF 00 FF 00 00 00 00 00 00 FF 
00 00 00 00 00 FF 00 FF 00 00 00 00 00 00 00 FF 
00 00 00 FF 00 FF 00 00 00 00 00 00 00 FF 00 00 
00 00 FF FF 00 00 FF 00 00 FF 00 00 00 00 00 FF 
00 00 FF FF 00 00 FF FF FF FF 00 00 FF 00 FF 00 
00 00 00 00 00 FF FF 00 00 00 00 00 00 00 00 00 
FF 00 00 00 FF 00 00 00 FF FF FF FF 00 00 FF 00 
00 FF FF 00 00 00 00 FF 00 00 00 00 00 FF FF 00 
FF 00 FF 00 00 00 00 00 FF FF FF 00 00 FF FF 00 
FF FF 00 FF 00 00 FF FF 00 00 00 FF FF FF 00 FF 
00 00 00 00 00 00 FF 00 FF 00 FF 00 00 00 00 00 
FF FF 00 00 00 00 00 00 00 00 00 00 00 00 00 00 
00 00 00 00 FF FF FF FF 00 FF 00 00 FF FF 00 FF 
FF FF 00 FF 00 FF 00 FF 00 FF 00 00 00 00 00 FF 
00 FF 00 00 FF 00 00 FF FF FF FF FF FF 00 00 FF 
00 00 00 00 00 00 FF 00 FF 00 00 00 00 00 00 FF 
FF 00 00 FF 00 00 00 00 FF 00 FF 00 FF 00 00 FF 
FF 00 FF 00 FF FF 00 00 FF 00 FF 00 FF FF 00 00 
00 FF 00 FF FF FF FF FF FF FF 00 00 00 00 00 FF 
FF FF FF 00 00 FF 00 00 00 00 FF FF FF 00 00 FF 
00 FF 00 00 00 00 FF 00 FF 00 00 00 00 00 FF FF 
00 00 00 00 00 00 00 00 FF 00 00 00 00 00 00 00 
FF 00 00 00 FF 00 00 00 00 00 FF 00 00 00 00 00 
FF 00 FF 00 FF 00 00 00 00 00 FF 00 00 FF FF 00 
00 FF 00 00 FF 00 FF FF FF 00 FF 00 FF 00 00 FF 
FF 00 FF 00 00 00 FF 00 00 00 00 00 00 00 00 00 
00 FF FF 00 00 00 FF FF 00 FF 00 00 FF 00 00 00 
FF 00 FF 00 FF 00 FF 00 FF 00 00 FF 00 00 00 00 
FF FF FF 00 00 00 00 FF 00 00 00 00 00 00 00 00 
FF 00 00 FF 00 FF 00 00 00 FF 00 00 FF 00 00 FF 
00 00 00 00 00 00 FF FF FF FF 00 00 FF FF 00 00 
00 FF 00 FF 00 FF 00 FF 00 00 00 00 00 00 00 00 
FF 00 00 FF 00 FF FF FF FF 00 00 00 FF FF FF 00 
00 00 00 FF 00 00 00 00 00 FF FF 00 FF FF 00 FF 
00 00 00 00 00 00 00 00 00 00 00 00 FF FF FF 00 
00 00 00 FF 00 00 00 00 00 FF 00 00 FF 00 FF FF 
00 00 00 00 00 00 00 FF 00 00 00 00 FF 00 00 FF 
FF 00 00 00 FF FF FF FF 00 00 FF FF FF FF FF 00 
00 00 FF 00 00 FF 00 00 00 00 00 FF 00 00 00 00 
FF FF 00 00 00 00 00 FF 00 00 FF 00 00 00 00 00 
00 00 00 FF 00 00 FF FF 00 00 00 FF FF FF 00 FF 
FF 00 00 00 FF 00 00 00 FF FF FF FF 00 00 00 00 
00 00 00 00 00 00 00 FF 00 FF 00 00 FF 00 00 00 
FF 00 00 FF FF 00 00 FF 00 FF 00 00 00 00 FF FF 
FF 00 FF 00 00 00 FF 00 FF 00 FF FF FF 00 FF 00 
00 00 00 00 00 00 00 00 00 FF 00 00 00 00 00 FF 
00 00 FF FF FF 00 00 FF 00 00 00 00 00 00 FF 00 
FF 00 FF 00 00 00 FF 00 00 00 00 FF 00 00 00 00 
00 FF 00 00 00 FF 00 00 FF 00 FF FF FF 00 00 00 
FF 00 FF 00 FF FF 00 00 FF FF FF 00 00 00 00 00 
00 FF FF 00 FF FF FF 00 00 00 00 00 00 FF 00 00 
00 00 FF FF 00 FF 00 FF 00 FF FF 00 FF FF 00 FF 
FF 00 FF 00 00 00 00 FF FF 00 FF FF FF 00 00 00 
FF FF 00 FF FF 00 00 00 00 00 00 FF 00 00 00 FF 
FF 00 FF 00 00 00 00 FF 00 FF 00 00 00 FF 00 FF 
00 00 00 00 00 00 00 00 FF 00 00 00 00 FF 00 00 
00 00 00 FF FF 00 FF 00 00 00 00 00 FF FF FF 00 
FF 00 00 00 FF 00 00 FF 00 00 00 FF FF 00 FF FF 
FF 00 00 00 FF 00 00 FF 00 FF 00 00 00 FF 00 FF 
00 00 00 FF FF 00 00 00 FF FF FF FF 00 FF 00 00 
FF 00 FF 00 00 00 00 00 00 00 00 00 00 FF 00 FF 
00 00 00 00 FF FF 00 00 00 00 00 00 00 00 00 FF 
FF FF 00 FF 00 00 00 FF 00 00 00 FF 00 FF 00 FF 
00 FF FF FF FF 00 00 FF 00 FF 00 00 00 00 00 FF 
00 00 00 FF 00 00 00 00 FF 00 00 00 00 00 FF 00 
FF 00 00 00 FF 00 00 00 00 00 00 00 FF FF 00 00 
FF 00 00 00 00 00 00 00 00 00 FF FF FF 00 00 FF 
00 00 FF 00 FF FF 00 00 00 FF 00 00 FF 00 00 00 
FF 00 00 FF FF 00 00 00 FF FF 00 FF 00 00 FF 00 
FF 00 00 00 00 FF 00 00 00 00 FF FF 00 00 00 FF 
FF FF 00 FF FF FF 00 FF FF FF FF FF 00 00 00 FF 
00 00 00 00 00 00 FF 00 00 FF 00 00 FF FF 00 FF 
00 FF 00 00 00 FF FF FF 00 00 FF 00 00 00 FF 00 
00 00 FF 00 00 00 00 00 FF 00 00 FF 00 00 00 FF 
FF 00 00 00 00 00 00 00 00 00 00 FF 00 00 00 FF 
00 00 00 00 00 00 FF 00 FF 00 00 00 00 00 00 00 
00 00 FF FF 00 00 00 00 00 00 00 FF FF FF FF 00 
00 FF FF FF 00 FF FF 00 FF FF 00 00 00 00 00 FF 
00 00 FF 00 00 00 00 FF 00 00 00 00 00 00 00 00 
FF 00 FF 00 FF 00 FF 00 00 00 FF 00 00 00 00 FF 
00 FF 00 00 FF 00 00 00 FF FF 00 FF 00 00 00 00 
FF 00 00 00 FF 00 00 FF FF FF 00 00 FF 00 00 FF 
00 FF 00 FF 00 00 00 00 FF 00 FF 00 00 FF 00 00 
00 FF FF 00 00 FF 00 00 FF 00 FF 00 00 00 00 00 
00 00 FF 00 00 00 00 00 00 00 00 00 00 00 FF 00 
00 00 00 00 00 00 FF 00 FF FF 00 00 00 00 00 00 
FF 00 00 00 00 00 FF FF 00 00 00 00 00 00 FF 00 
00 00 FF 00 00 FF 00 00 00 00 FF 00 00 FF FF 00 
00 00 00 00 00 00 00 00 00 00 00 00 00 00 00 FF 
00 FF 00 00 FF 00 00 00 FF 00 FF 00 00 00 FF 00 
00 00 00 FF 00 00 00 00 00 00 00 FF 00 00 FF 00 
00 00 FF 00 00 00 00 00 00 00 FF FF FF 00 00 00 
FF 00 00 00 00 FF 00 00 00 FF 00 FF 00 FF 00 00 
FF 00 00 00 FF FF 00 00 00 FF FF 00 00 00 00 00 
00 FF 00 FF 00 FF 00 FF 00 FF 00 00 FF 00 00 00 
FF 00 00 FF 00 00 FF 00 00 00 FF 00 00 00 00 FF 
00 00 00 FF 00 00 00 00 FF FF 00 00 00 00 00 00 
FF FF FF FF FF 00 00 00 00 FF FF 00 00 00 FF FF 
00 00 00 00 00 FF FF 00 00 00 FF FF 00 FF FF 00 
00 00 00 00 00 FF FF FF FF FF 00 FF 00 FF 00 FF 
00 FF 00 00 00 FF FF 00 FF 00 00 00 00 00 00 FF 
FF FF 00 00 00 FF 00 00 00 FF FF FF FF 00 00 00 
FF 00 FF 00 00 FF 00 FF 00 FF 00 FF 00 00 FF 00 
00 FF 00 FF 00 FF 00 00 FF 00 FF FF 00 00 00 00 
FF 00 00 00 00 FF FF 00 FF FF 00 FF 00 00 00 00 
FF 00 00 00 00 00 FF 00 00 00 00 FF FF FF 00 00 
00 FF 00 FF FF FF 00 00 FF FF 00 00 FF 00 00 00 
FF FF 00 00 00 FF 00 00 FF 00 00 00 FF 00 FF 00 
00 FF 00 FF FF 00 FF FF 00 00 00 00 00 FF FF 00 
00 FF 00 00 00 00 FF 00 00 00 FF 00 00 00 00 00 
00 00 00 00 00 00 FF 00 00 FF 00 FF FF 00 00 00 
00 00 00 00 00 00 00 00 FF FF FF 00 00 00 00 00 
00 FF 00 00 FF 00 00 FF 00 00 00 FF 00 00 00 00 
FF FF FF 00 FF 00 FF FF FF 00 FF 00 00 00 00 00 
FF 00 00 00 FF 00 00 FF FF 00 00 00 FF FF FF FF 
FF 00 FF 00 FF 00 00 FF FF 00 FF FF 00 00 00 FF 
FF 00 00 00 00 FF 00 00 00 00 00 FF 00 FF 00 00 
00 FF FF FF 00 00 00 FF FF 00 00 00 FF FF 00 00 
00 00 FF 00 00 FF 00 00 00 00 00 00 00 00 FF 00 
00 FF 00 00 FF 00 00 00 00 00 00 00 00 FF 00 FF 
00 00 00 FF 00 FF 00 00 00 00 00 00 00 00 FF 00 
FF 00 00 FF 00 00 FF 00 00 00 FF 00 00 00 00 00 
FF FF 00 00 00 00 FF FF 00 00 00 00 00 FF 00 00 
FF FF FF FF 00 00 00 00 00 00 00 00 00 00 00 00 
FF FF FF 00 FF 00 00 FF 00 FF 00 FF 00 FF 00 FF 
FF FF FF FF 00 00 00 00 FF 00 00 00 00 FF FF FF 
00 00 FF 00 FF 00 00 00 FF FF FF 00 00 00 00 00 
FF 00 00 00 00 00 00 FF 00 00 00 FF 00 FF 00 FF 
00 FF FF 00 00 00 00 FF 00 00 FF FF 00 FF 00 FF 
00 FF 00 00 00 00 00 00 FF FF FF FF FF 00 FF FF 
00 00 FF 00 00 00 00 FF 00 FF FF 00 00 FF 00 FF 
00 00 00 00 00 FF FF FF 00 00 FF 00 00 FF FF FF 
FF FF FF 00 FF 00 FF FF 00 FF 00 FF 00 00 00 FF 
FF 00 00 00 00 FF 00 00 00 00 FF 00 00 00 00 00 
00 FF 00 FF 00 00 FF 00 FF FF FF 00 00 00 00 FF 
FF 00 00 00 00 FF 00 FF FF 00 00 00 FF FF 00 FF 
00 FF 00 FF 00 00 00 00 00 00 00 00 FF 00 FF 00 
FF 00 00 00 FF FF 00 00 FF FF FF FF FF 00 00 FF 
FF 00 FF FF FF FF FF 00 00 FF 00 00 00 00 00 00 
00 00 00 00 00 FF 00 00 00 00 FF 00 00 FF 00 00 
00 00 FF 00 00 00 FF 00 00 00 FF FF FF 00 00 00 
00 00 00 FF 00 FF 00 FF 00 FF 00 00 FF FF FF 00 
00 00 00 00 00 00 00 00 00 00 00 00 00 00 00 00 
00 00 00 00 00 00 00 00 FF 00 FF FF 00 FF FF 00 
00 00 FF 00 00 FF 00 FF 00 00 FF 00 FF 00 FF FF 
00 00 FF 00 00 FF FF 00 00 FF FF 00 00 FF 00 FF 
00 00 00 FF FF FF 00 00 00 00 00 00 00 00 00 00 
00 00 FF FF 00 FF 00 FF 00 00 FF FF 00 00 00 00 
00 00 00 00 00 FF 00 00 FF 00 00 00 00 FF 00 00 
00 00 00 00 00 FF 00 00 FF FF FF FF 00 00 00 00 
00 FF 00 FF 00 FF 00 00 00 00 00 00 00 00 FF 00 
00 00 00 00 00 00 00 FF 00 00 00 00 00 00 FF 00 
00 00 FF 00 FF FF 00 FF 00 00 00 00 FF 00 00 00 
00 FF 00 00 FF 00 00 00 FF 00 00 FF FF FF 00 00 
FF FF 00 00 FF FF 00 00 FF 00 00 00 00 00 FF 00 
00 FF 00 00 00 00 FF FF 00 00 FF 00 FF 00 00 00 
00 00 FF 00 00 FF 00 FF 00 00 00 00 00 00 00 FF 
FF FF FF FF 00 FF 00 00 FF 00 FF 00 FF FF FF 00 
00 FF 00 00 FF FF 00 FF 00 00 00 FF 00 00 00 00 
00 00 00 FF 00 00 00 00 00 FF 00 00 00 00 00 00 
FF 00 FF 00 00 FF FF 00 00 00 00 FF 00 00 FF FF 
FF 00 00 FF FF FF FF 00 00 00 00 FF 00 00 00 FF 
FF 00 FF 00 00 FF 00 00 00 00 00 00 FF 00 00 FF 
FF 00 FF 00 FF 00 00 00 00 FF 00 00 00 00 00 00 
00 00 00 00 00 00 00 00 00 00 FF FF 00 00 00 00 
FF 00 FF 00 00 00 FF FF 00 FF 00 00 00 00 00 FF 
00 00 00 FF FF 00 FF FF 00 FF 00 FF FF FF 00 FF 
FF 00 00 00 00 FF FF 00 FF 00 00 00 00 00 FF FF 
FF 00 FF 00 00 00 00 00 FF 00 00 FF 00 00 00 00 
00 00 00 FF 00 00 00 00 00 00 00 FF 00 00 FF 00 
00 00 00 FF 00 00 FF 00 00 00 00 00 FF FF FF 00 
00 FF 00 00 00 00 FF 00 FF FF 00 00 FF FF 00 FF 
FF FF 00 00 00 00 FF 00 00 00 00 00 FF 00 FF FF 
00 00 00 FF 00 00 00 00 00 00 00 00 00 FF FF 00 
00 00 FF FF FF 00 00 00 00 00 00 00 FF 00 00 00 
00 FF FF FF 00 00 00 00 00 FF 00 FF 00 00 FF 00 
00 00 00 00 00 FF 00 00 FF FF 00 00 00 FF 00 00 
00 00 00 FF 00 00 FF FF 00 00 00 00 00 FF 00 00 
00 00 00 00 FF FF 00 00 FF FF FF 00 00 00 FF 00 
00 FF 00 FF 00 00 00 00 00 FF FF 00 00 00 00 00 
00 00 00 00 00 00 00 FF 00 00 00 00 00 00 FF 00 
FF FF 00 FF FF FF 00 00 00 FF 00 FF 00 FF 00 FF 
00 00 00 00 00 00 00 00 00 00 00 00 FF 00 FF 00 
FF 00 00 FF 00 00 FF 00 00 00 00 FF 00 00 00 FF 
00 FF 00 00 00 FF 00 00 00 00 FF 00 00 FF FF FF 
FF 00 FF FF 00 00 00 FF FF 00 FF 00 00 00 00 00 
00 00 00 FF 00 FF 00 FF 00 FF 00 FF 00 00 00 00 
FF 00 FF 00 00 00 00 00 00 FF 00 00 FF 00 00 FF 
FF FF FF FF 00 FF FF FF 00 00 00 00 FF 00 00 00 
00 00 FF 00 FF FF 00 00 00 FF 00 00 00 FF 00 FF 
00 00 00 00 00 00 00 FF 00 00 FF FF 00 FF 00 FF 
00 FF 00 FF FF 00 FF 00 00 FF FF 00 FF FF 00 00 
00 FF 00 FF FF 00 00 FF 00 00 FF 00 00 00 FF FF 
00 00 FF FF 00 00 00 FF 00 00 00 00 FF 00 00 00 
00 00 00 FF FF 00 FF 00 FF 00 FF FF 00 FF FF FF 
FF FF FF 00 00 FF FF FF FF 00 FF FF 00 00 00 00 
FF 00 00 00 00 FF 00 00 00 FF 00 00 FF 00 00 00 
FF 00 00 FF FF 00 00 FF FF 00 00 00 00 00 FF 00 
FF FF FF 00 FF FF 00 00 00 FF FF 00 FF 00 00 FF 
00 FF 00 00 00 00 FF FF 00 00 FF FF FF FF 00 00 
00 FF 00 00 00 FF 00 00 00 00 00 00 00 00 00 FF 
00 FF 00 00 00 FF 00 00 FF FF 00 FF FF 00 00 00 
FF 00 00 00 00 00 FF 00 00 FF FF 00 00 00 FF 00 
FF FF 00 00 00 00 00 00 00 00 00 FF 00 00 FF 00 
00 00 00 00 00 FF 00 FF 00 00 00 00 00 FF 00 FF 
00 FF 00 FF 00 FF 00 00 00 00 FF FF 00 FF 00 00 
FF 00 00 00 FF 00 00 00 00 00 FF 00 00 FF 00 FF 
FF 00 FF 00 00 FF 00 FF 00 00 00 00 FF 00 00 FF 
FF 00 FF FF 00 00 FF 00 FF 00 FF 00 00 FF 00 FF 
00 FF 00 00 00 FF 00 00 FF FF 00 FF 00 00 00 00 
FF 00 FF FF 00 00 00 00 00 00 00 FF 00 00 00 00 
FF FF 00 00 00 FF FF 00 00 FF FF 00 00 00 FF 00 
FF 00 00 FF 00 FF 00 FF 00 00 00 00 FF 00 00 FF 
00 00 00 FF 00 FF FF 00 FF 00 FF FF 00 00 00 FF 
00 00 00 00 00 FF 00 FF FF FF 00 00 FF 00 00 00 
FF 00 00 FF 00 FF FF FF 00 00 00 00 FF 00 00 FF 
00 FF 00 00 00 00 FF FF 00 FF 00 00 00 FF 00 00 
00 00 FF 00 FF 00 FF 00 00 00 FF 00 00 FF 00 FF 
00 FF FF 00 00 00 00 FF 00 FF 00 FF FF 00 FF 00 
FF FF FF 00 00 00 00 00 00 00 FF 00 FF 00 FF 00 
FF 00 00 00 FF FF FF 00 FF 00 00 00 FF 00 FF 00 
FF 00 FF 00 FF 00 FF 00 FF 00 FF 00 FF 00 00 FF 
00 FF FF 00 00 00 FF 00 00 00 FF 00 00 00 FF FF 
FF FF 00 FF 00 00 00 FF FF FF 00 00 00 00 FF 00 
FF FF 00 00 00 00 00 FF 00 FF 00 00 00 00 00 00 
FF FF FF 00 FF 00 FF FF FF 00 FF 00 FF FF 00 FF 
00 FF FF FF 00 FF 00 00 00 FF 00 FF 00 FF FF FF 
00 FF 00 00 FF 00 00 FF 00 00 00 FF 00 00 00 FF 
00 FF FF 00 00 00 00 00 00 00 00 00 00 FF FF 00 
FF 00 00 00 FF 00 00 00 00 00 00 FF FF FF FF FF 
FF 00 FF 00 FF FF 00 FF 00 00 00 FF 00 FF 00 00 
00 00 00 FF FF 00 00 00 00 FF 00 00 FF 00 FF 00 
00 00 00 00 00 FF 00 FF 00 00 FF 00 00 FF FF 00 
00 FF 00 00 00 FF 00 FF FF FF FF 00 FF 00 00 00 
00 00 00 00 FF FF 00 FF FF 00 FF FF FF FF 00 00 
00 00 00 00 00 FF 00 FF 00 00 00 00 00 00 00 FF 
FF 00 00 00 FF FF 00 FF FF 00 00 00 00 FF FF 00 
00 00 FF FF 00 FF 00 FF FF 00 FF 00 00 FF FF 00 
00 FF 00 00 00 00 FF 00 00 00 00 FF 00 FF FF 00 
FF 00 00 00 00 00 00 00 00 FF 00 00 FF 00 00 FF 
FF 00 FF 00 FF FF 00 00 00 00 FF 00 FF 00 00 FF 
FF 00 FF 00 00 00 00 00 FF 00 FF 00 FF 00 00 00 
00 FF 00 FF FF 00 FF FF 00 00 00 00 FF 00 FF FF 
FF 00 00 00 FF 00 00 00 00 00 00 00 FF FF FF FF 
FF 00 00 00 00 00 FF FF FF FF FF FF 00 FF 00 00 
00 FF 00 00 FF FF FF 00 00 00 FF 00 00 FF 00 00 
00 00 FF 00 00 00 00 FF 00 00 00 FF 00 FF 00 FF 
00 FF 00 00 00 00 00 00 FF FF 00 FF 00 00 00 00 
00 00 FF FF 00 00 FF 00 00 FF FF FF FF 00 00 00 
FF FF 00 00 00 00 00 00 00 FF 00 00 FF 00 FF 00 
00 FF 00 00 FF 00 00 FF 00 00 FF FF 00 00 FF 00 
00 00 00 00 00 00 00 00 FF 00 00 00 00 FF 00 00 
00 00 00 00 00 00 00 00 00 FF 00 00 FF 00 00 00 
00 FF 00 00 FF FF 00 00 00 00 FF 00 00 00 FF 00 
00 00 FF FF FF FF 00 00 00 00 00 00 FF 00 00 00 
FF 00 00 00 00 FF 00 FF 00 00 00 00 00 00 00 00 
FF 00 00 00 00 FF 00 00 00 00 00 00 00 00 FF FF 
00 00 00 00 FF FF 00 FF 00 00 00 00 00 FF FF FF 
FF 00 00 00 00 FF 00 FF FF FF 00 00 00 00 FF 00 
00 00 00 FF FF 00 00 00 00 FF FF 00 00 FF FF 00 
00 00 00 00 FF FF 00 FF 00 00 00 00 00 00 00 FF 
00 00 00 00 FF FF FF 00 00 00 FF FF FF FF 00 00 
FF 00 00 00 00 00 FF FF FF 00 00 00 00 00 00 FF 
00 00 00 00 00 FF FF FF FF FF FF FF 00 FF FF FF 
00 00 00 00 00 00 00 00 FF FF 00 00 00 FF 00 00 
00 FF FF 00 FF FF FF FF 00 00 00 00 00 00 00 00 
00 00 00 00 FF 00 FF FF 00 00 FF FF 00 FF 00 00 
00 FF 00 00 00 00 FF 00 FF 00 00 00 00 00 FF 00 
00 00 00 00 00 FF 00 FF 00 00 00 00 00 00 FF 00 
FF 00 00 00 00 00 00 FF 00 00 00 00 FF FF FF 00 
00 00 FF 00 00 00 FF FF FF 00 00 00 FF 00 00 FF 
FF FF 00 00 00 FF 00 00 FF 00 FF 00 00 FF FF 00 
00 00 00 FF 00 00 00 00 00 00 00 00 00 00 00 00 
FF 00 00 FF FF FF 00 00 FF 00 00 00 FF FF 00 00 
00 FF 00 00 00 00 FF 00 00 FF 00 00 FF 00 00 00 
00 FF 00 00 00 00 FF 00 00 00 00 00 00 00 00 00 
00 00 00 00 FF 00 00 FF FF FF 00 00 00 00 FF FF 
00 00 00 00 00 00 00 FF 00 00 00 00 FF FF 00 00 
FF FF FF FF FF 00 FF FF 00 FF 00 00 00 00 00 00 
00 00 00 FF 00 FF FF FF 00 00 FF FF 00 00 00 00 
00 00 00 FF FF 00 FF 00 FF FF 00 00 00 00 00 00 
FF 00 00 00 00 FF 00 FF FF 00 00 00 00 FF FF 00 
00 00 00 00 FF 00 00 FF 00 00 FF 00 FF FF 00 00 
00 FF FF 00 FF 00 00 00 00 00 FF FF 00 FF 00 00 
00 00 00 00 FF 00 00 00 FF 00 00 00 FF 00 00 00 
FF 00 00 00 FF 00 FF 00 00 FF FF 00 00 00 00 FF 
00 00 00 FF 00 00 FF 00 00 00 00 00 00 FF 00 00 
00 FF 00 FF FF 00 00 FF 00 FF 00 00 FF 00 00 FF 
00 00 00 FF 00 00 00 00 00 FF 00 FF 00 00 00 00 
FF 00 00 FF 00 00 FF 00 00 00 00 FF 00 00 00 00 
00 FF 00 00 00 00 FF 00 FF 00 FF 00 00 00 FF 00 
00 FF FF 00 00 00 00 00 00 FF FF FF FF 00 00 00 
00 00 00 00 00 00 00 FF 00 00 00 FF 00 00 FF FF 
00 FF FF 00 00 00 FF 00 FF 00 00 FF FF 00 00 FF 
FF 00 FF FF 00 00 00 00 00 00 00 00 FF FF 00 00 
00 00 FF 00 FF 00 00 FF 00 00 00 00 00 00 FF 00 
00 00 00 FF 00 00 00 FF FF FF 00 FF 00 00 00 00 
FF FF 00 00 00 FF 00 FF 00 00 FF 00 FF 00 00 00 
FF 00 FF 00 FF FF FF FF FF 00 FF 00 FF FF 00 00 
00 00 FF 00 00 00 00 FF 00 FF 00 FF 00 FF 00 FF 
00 FF FF 00 00 FF FF 00 00 00 00 FF 00 00 00 00 
00 00 FF 00 FF 00 00 00 00 00 FF FF 00 00 00 00 
00 00 00 00 00 00 00 FF 00 00 00 00 FF 00 FF FF 
00 FF 00 00 FF 00 00 00 00 FF FF 00 00 00 00 00 
FF FF FF 00 00 FF 00 00 00 FF 00 FF 00 00 FF 00 
FF 00 00 00 00 00 00 00 00 00 00 FF 00 00 FF 00 
00 00 FF FF 00 00 FF 00 00 FF 00 00 00 00 FF 00 
00 FF FF 00 00 00 00 00 00 00 00 00 00 00 00 FF 
00 00 FF 00 00 00 00 00 00 00 00 00 00 00 FF FF 
00 00 00 FF FF FF 00 00 00 FF 00 FF 00 FF 00 FF 
FF 00 00 00 00 00 00 FF 00 00 00 00 00 00 FF 00 
FF FF 00 00 FF FF FF FF 00 FF 00 FF FF 00 00 00 
00 00 00 FF 00 FF 00 00 00 FF 00 00 FF 00 00 00 
00 00 FF 00 00 00 00 FF 00 00 FF FF 00 FF 00 FF 
00 00 FF FF 00 00 FF 00 00 00 00 FF 00 FF 00 00 
00 00 00 00 00 FF 00 00 00 FF 00 00 FF 00 00 00 
00 00 00 00 00 FF FF 00 00 00 00 00 FF 00 FF 00 
00 00 00 FF 00 FF 00 FF FF 00 FF 00 00 00 00 FF 
00 00 FF 00 00 00 00 00 FF 00 00 00 FF 00 00 00 
00 FF FF FF 00 FF 00 00 FF 00 00 00 FF FF FF 00 
00 00 00 00 FF FF 00 00 00 FF 00 FF 00 00 FF 00 
00 00 FF 00 00 00 00 00 00 00 00 00 00 FF 00 00 
00 00 FF 00 00 00 FF 00 00 FF FF FF 00 FF 00 00 
FF 00 00 00 00 FF 00 00 00 00 00 00 00 FF FF 00 
00 00 00 00 00 00 00 00 00 00 00 00 00 00 00 00 
00 00 FF 00 FF FF 00 FF 00 00 00 00 00 00 00 00 
00 FF FF 00 00 FF 00 FF 00 FF 00 FF 00 00 00 00 
00 00 FF FF FF 00 FF FF 00 FF 00 FF FF 00 00 00 
FF FF 00 00 FF 00 00 00 00 FF FF FF FF 00 00 FF 
FF FF 00 00 00 00 00 FF FF 00 00 FF 00 00 00 FF 
00 00 00 00 FF 00 00 00 FF 00 00 00 00 00 00 FF 
00 FF 00 00 FF 00 FF FF FF 00 00 FF 00 00 FF 00 
00 00 00 00 00 FF FF FF FF 00 00 00 00 00 00 00 
FF FF 00 FF 00 FF 00 00 FF 00 FF 00 FF 00 00 00 
00 00 00 00 FF 00 00 FF 00 00 00 00 00 00 FF 00 
FF 00 FF 00 00 00 00 00 00 FF FF 00 00 00 00 FF 
00 00 FF FF FF FF 00 00 FF FF 00 00 00 FF 00 FF 
00 00 00 00 FF 00 00 00 00 00 00 00 00 00 FF 00 
00 00 00 FF 00 FF FF 00 00 00 FF 00 00 00 FF 00 
FF 00 00 00 00 00 FF 00 FF 00 00 FF 00 00 00 00 
FF 00 00 00 00 00 00 00 00 00 00 00 00 00 FF 00 
FF 00 00 FF FF 00 00 00 00 00 00 00 FF 00 00 00 
00 00 00 00 00 FF FF FF 00 00 FF 00 FF 00 00 00 
00 FF 00 FF 00 FF 00 00 00 00 FF FF FF FF 00 FF 
00 FF 00 00 FF 00 00 FF 00 FF 00 00 00 FF 00 FF 
FF FF FF 00 FF 00 FF FF 00 FF FF 00 FF 00 00 FF 
FF 00 00 00 00 FF 00 FF 00 00 00 FF 00 00 00 FF 
00 00 00 FF FF 00 FF 00 00 FF 00 FF FF 00 FF 00 
00 00 00 FF 00 00 00 00 00 00 00 FF FF 00 00 FF 
00 FF FF 00 00 00 00 00 00 00 00 FF 00 00 00 00 
00 00 FF 00 00 00 00 FF 00 FF FF 00 FF 00 00 00 
00 FF 00 00 00 00 00 00 00 00 00 FF FF 00 00 FF 
00 00 00 00 FF FF 00 00 00 00 00 00 FF 00 FF 00 
00 00 FF FF 00 00 00 FF FF 00 FF 00 00 FF FF 00 
00 00 00 FF FF FF FF 00 00 00 00 00 00 00 00 00 
00 FF FF FF 00 00 FF 00 00 00 00 00 00 00 00 00 
00 00 00 00 FF 00 FF FF 00 00 00 FF FF 00 00 00 
00 00 00 00 FF 00 00 00 00 00 00 FF 00 00 00 FF 
00 00 00 00 00 FF 00 FF 00 00 FF 00 00 00 00 FF 
FF FF FF FF 00 00 00 00 00 FF 00 00 00 00 FF 00 
FF 00 00 00 00 FF FF 00 FF 00 FF 00 FF 00 00 00 
00 00 FF FF 00 00 00 FF 00 00 00 FF FF 00 00 00 
00 00 FF 00 00 00 FF 00 FF 00 00 FF 00 FF 00 00 
00 FF 00 FF 00 00 00 FF FF 00 00 00 00 FF 00 FF 
00 FF 00 00 00 FF FF 00 FF FF FF 00 00 00 FF FF 
FF 00 00 00 00 FF 00 00 00 00 FF 00 00 FF 00 00 
FF 00 00 00 FF 00 FF FF FF 00 FF 00 00 FF FF FF 
00 00 00 00 FF 00 FF 00 00 00 FF 00 00 00 FF 00 
00 00 FF FF 00 00 00 FF 00 00 00 FF FF 00 FF 00 
00 FF FF 00 FF 00 00 00 FF 00 00 00 00 00 00 00 
FF 00 00 FF 00 00 00 00 00 00 00 FF 00 00 00 00 
00 00 FF 00 00 FF 00 00 FF 00 FF FF 00 00 FF 00 
00 00 FF FF FF 00 FF 00 FF 00 00 00 00 00 00 00 
00 00 00 FF 00 00 00 00 FF FF 00 00 00 00 00 FF 
00 00 00 00 00 00 FF 00 00 FF 00 FF 00 00 00 FF 
00 00 00 00 FF 00 FF 00 00 FF FF FF 00 00 00 00 
00 00 00 FF 00 00 FF FF 00 00 FF 00 00 FF FF 00 
00 00 00 FF FF FF 00 00 FF 00 FF 00 FF FF 00 00 
00 00 FF FF 00 00 FF 00 00 00 00 FF 00 00 FF 00 
FF FF 00 00 FF FF FF 00 00 00 FF 00 00 FF 00 FF 
00 FF 00 00 00 00 FF FF 00 00 00 00 FF 00 00 00 
00 FF 00 FF 00 00 00 00 00 FF FF FF FF 00 00 FF 
00 FF 00 00 FF FF 00 00 00 FF FF 00 00 00 00 00 
FF 00 00 00 00 00 00 00 00 FF 00 00 FF 00 00 00 
00 00 00 FF FF FF FF 00 FF 00 00 FF FF FF FF FF 
00 00 FF 00 00 FF 00 00 FF FF 00 FF FF 00 FF 00 
00 00 00 00 FF FF 00 FF 00 00 00 00 00 FF 00 00 
00 00 00 00 00 FF 00 00 00 00 00 00 00 FF FF FF 
00 FF 00 00 FF 00 00 00 00 FF 00 00 00 FF 00 FF 
00 00 00 00 FF 00 00 00 00 00 00 00 00 00 00 00 
00 00 00 00 00 FF 00 FF 00 FF FF 00 00 FF FF 00 
00 00 FF FF 00 00 FF 00 00 FF 00 00 00 FF FF FF 
FF 00 00 00 00 00 00 00 00 00 FF FF 00 00 00 00 
FF FF 00 00 00 00 FF 00 FF FF 00 00 00 FF 00 00 
FF 00 00 FF 00 00 00 00 FF FF FF 00 00 FF 00 00 
00 FF 00 FF 00 FF 00 00 FF 00 00 00 FF 00 00 00 
00 FF 00 00 FF 00 00 00 00 00 FF 00 FF 00 00 00 
FF 00 00 00 FF 00 00 00 00 FF 00 00 FF FF 00 00 
00 FF 00 FF 00 FF 00 00 00 FF FF 00 FF FF 00 00 
00 00 00 00 FF FF 00 00 00 00 FF 00 FF 00 00 00 
00 00 FF 00 00 00 FF 00 FF 00 00 FF 00 FF FF 00 
00 00 00 FF FF 00 FF 00 FF FF 00 FF 00 00 FF 00 
FF FF 00 00 00 00 00 00 00 00 00 00 00 FF 00 00 
FF 00 00 FF FF 00 00 00 FF 00 00 FF FF 00 FF 00 
FF 00 FF 00 FF 00 FF 00 00 FF FF 00 00 00 FF 00 
00 FF FF 00 FF FF 00 FF FF FF 00 00 FF 00 00 FF 
00 FF 00 00 00 FF 00 00 FF FF FF 00 00 00 00 FF 
00 00 00 00 FF 00 00 FF 00 00 00 00 00 00 FF 00 
00 FF 00 00 FF FF 00 00 FF 00 00 00 FF FF 00 00 
FF FF 00 FF 00 00 00 FF 00 FF FF FF 00 00 00 00 
00 FF 00 FF 00 00 00 00 00 FF 00 00 00 FF FF 00 
00 00 00 00 00 FF 00 00 FF FF 00 00 00 00 00 00 
FF 00 00 00 00 00 00 00 FF FF 00 00 FF 00 FF 00 
00 FF 00 00 00 FF 00 FF 00 00 00 00 00 00 00 00 
00 00 00 00 00 FF 00 00 00 FF 00 00 FF 00 00 00 
FF FF 00 00 00 00 00 00 00 00 00 FF 00 00 FF FF 
FF 00 FF 00 00 00 00 FF 00 FF FF 00 FF 00 00 00 
FF 00 FF 00 FF FF FF 00 FF FF FF 00 00 00 FF FF 
FF FF 00 00 FF 00 00 FF 00 00 00 FF 00 FF 00 00 
FF 00 00 FF 00 00 00 00 FF 00 00 FF 00 00 FF FF 
00 00 00 00 00 00 00 00 FF 00 00 FF FF 00 00 00 
00 00 00 00 00 00 FF 00 FF 00 FF FF FF 00 FF 00 
FF 00 FF 00 FF 00 FF 00 00 00 00 FF 00 00 00 00 
FF 00 FF 00 00 00 00 00 FF FF 00 00 00 FF 00 FF 
FF 00 00 00 00 00 00 00 00 00 00 00 FF 00 00 FF 
FF FF 00 00 FF FF 00 FF FF 00 FF FF 00 00 00 00 
00 00 00 00 FF FF FF 00 00 FF 00 00 00 00 00 00 
FF 00 00 FF FF 00 00 00 00 00 00 00 00 00 00 00 
00 FF FF FF FF 00 FF 00 00 FF 00 FF FF FF FF FF 
00 00 00 FF FF 00 00 FF 00 00 00 FF FF 00 00 FF 
00 FF 00 FF 00 00 00 FF FF FF 00 00 00 00 00 00 
00 00 00 FF FF 00 00 00 00 FF 00 00 FF 00 00 00 
00 00 00 FF 00 00 00 00 FF 00 00 00 FF 00 00 00 
FF 00 FF 00 00 00 00 FF FF 00 FF FF 00 FF FF 00 
FF FF 00 00 FF 00 00 FF FF 00 00 FF FF 00 FF 00 
00 00 FF 00 00 FF 00 00 FF 00 FF 00 00 00 FF 00 
00 FF FF 00 00 FF 00 00 00 00 FF FF 00 00 00 00 
FF FF 00 00 FF 00 00 00 FF FF FF 00 00 00 FF FF 
FF 00 00 00 00 FF 00 00 FF FF FF 00 00 00 00 00 
FF 00 FF 00 00 FF FF FF 00 00 FF 00 00 FF FF 00 
FF FF 00 00 00 00 00 00 00 00 00 FF 00 00 00 FF 
FF 00 00 00 00 00 00 00 00 00 00 00 FF 00 00 FF 
00 FF 00 00 00 00 00 FF 00 FF FF 00 00 FF 00 00 
00 00 00 FF FF 00 00 FF 00 00 00 00 00 00 00 00 
FF FF 00 00 FF 00 FF 00 00 00 FF 00 FF 00 FF 00 
FF 00 FF 00 00 00 FF 00 00 00 00 00 FF 00 00 FF 
00 00 00 FF 00 00 FF 00 00 00 00 00 00 FF 00 00 
FF 00 00 00 00 00 00 00 00 00 00 FF 00 00 00 FF 
00 FF 00 00 00 00 FF 00 FF 00 00 00 FF 00 00 FF 
00 00 00 FF 00 00 00 00 FF 00 00 00 00 00 FF 00 
00 00 FF 00 00 00 FF 00 00 FF 00 00 00 FF 00 FF 
00 00 00 00 00 00 FF FF FF 00 00 00 00 00 FF 00 
00 00 00 FF 00 00 FF FF 00 00 00 00 00 00 00 00 
FF 00 FF 00 FF 00 00 FF 00 00 00 00 00 FF FF FF 
FF 00 00 00 FF 00 00 00 FF 00 00 FF FF 00 00 FF 
FF 00 FF FF FF 00 00 FF 00 00 00 FF 00 00 00 00 
00 FF 00 FF 00 00 FF FF 00 FF FF 00 FF 00 00 00 
00 FF FF 00 FF 00 00 00 00 00 FF 00 FF 00 00 FF 
00 FF 00 FF 00 00 FF FF FF 00 00 00 00 FF 00 00 
00 00 00 00 00 FF 00 00 FF 00 00 00 00 00 00 00 
FF FF FF FF FF FF 00 00 00 00 00 00 00 00 00 00 
00 FF 00 00 00 00 00 FF FF FF 00 FF FF 00 FF FF 
00 FF FF FF 00 00 00 00 00 FF 00 00 00 00 00 00 
00 00 FF 00 00 00 00 FF FF FF 00 FF 00 00 FF 00 
FF 00 00 00 00 00 00 00 00 FF FF FF 00 00 FF FF 
FF FF 00 FF FF FF 00 00 00 00 00 00 FF 00 00 00 
00 FF 00 00 00 00 00 FF 00 00 00 FF 00 00 FF 00 
FF 00 FF FF FF 00 00 00 FF FF 00 00 FF 00 FF FF 
FF 00 00 00 FF FF 00 00 00 FF 00 FF 00 00 FF 00 
00 FF FF FF FF FF 00 00 00 FF FF 00 FF FF 00 FF 
FF 00 00 00 00 00 00 00 00 FF FF 00 00 00 00 00 
FF 00 00 FF 00 00 00 FF 00 00 00 00 FF 00 00 00 
FF 00 FF 00 00 FF 00 00 FF FF 00 FF 00 00 00 00 
FF 00 00 FF FF 00 FF 00 00 FF FF FF 00 FF 00 00 
00 00 FF 00 00 00 FF FF FF 00 FF 00 00 FF 00 00 
00 00 00 00 FF FF 00 FF FF FF 00 00 00 00 00 FF 
FF 00 00 00 00 FF 00 00 FF FF 00 00 FF FF 00 00 
00 00 FF FF 00 FF 00 FF FF 00 00 00 00 00 FF 00 
00 FF 00 FF FF 00 00 FF 00 00 FF FF 00 FF 00 00 
00 00 00 00 00 FF 00 00 FF FF FF 00 00 00 FF 00 
00 00 00 00 00 FF FF FF 00 00 00 00 00 FF 00 FF 
00 FF 00 FF 00 00 00 00 00 00 00 00 00 FF FF 00 
00 FF 00 00 FF 00 00 00 00 00 00 00 00 00 FF FF 
FF 00 00 00 00 00 00 00 00 00 FF FF 00 00 00 FF 
00 00 00 00 00 FF 00 00 00 00 FF 00 00 FF 00 FF 
FF 00 FF 00 00 FF 00 FF 00 00 00 00 00 00 FF FF 
00 00 FF 00 00 FF 00 00 00 FF 00 00 00 FF 00 00 
00 00 00 00 00 FF 00 00 00 00 FF FF 00 00 00 00 
FF 00 00 00 00 00 00 00 00 00 00 00 00 00 00 FF 
00 00 FF 00 FF 00 FF FF FF 00 00 00 00 FF 00 00 
00 00 00 FF FF 00 FF 00 FF 00 00 00 FF FF 00 00 
00 00 FF 00 FF 00 00 00 00 00 00 00 00 00 00 00 
FF FF 00 00 00 00 00 00 00 FF FF 00 00 FF 00 00 
00 FF FF 00 00 FF FF FF 00 00 FF 00 00 00 00 00 
00 00 00 00 FF 00 00 00 FF FF FF 00 FF FF FF 00 
00 00 FF FF 00 FF FF FF FF 00 FF 00 FF FF 00 00 
00 FF 00 00 FF 00 FF 00 00 00 00 FF 00 FF 00 FF 
00 00 FF 00 00 00 00 FF 00 FF FF 00 FF 00 00 00 
00 00 00 FF FF 00 00 FF FF FF FF 00 FF FF 00 00 
00 FF 00 00 00 FF FF 00 FF FF 00 00 00 00 FF 00 
00 00 00 00 00 00 00 00 00 FF 00 FF FF FF 00 FF 
FF 00 FF FF 00 FF 00 00 00 00 00 00 FF 00 00 00 
FF 00 FF FF FF 00 FF FF FF 00 FF 00 00 FF 00 00 
00 00 00 FF 00 00 00 FF FF 00 00 00 FF 00 00 00 
00 00 00 00 00 00 00 00 00 FF 00 00 FF FF FF FF 
00 00 FF 00 00 00 FF 00 00 00 FF 00 FF 00 FF FF 
FF FF 00 00 00 00 00 00 00 00 00 00 FF FF 00 00 
00 00 00 FF 00 00 00 00 00 00 00 FF FF FF 00 FF 
00 00 00 FF 00 FF FF 00 FF FF 00 00 00 FF FF FF 
FF FF FF 00 00 00 FF 00 FF 00 00 FF FF 00 FF 00 
00 00 00 FF FF 00 FF FF FF 00 00 FF 00 FF FF 00 
00 00 00 FF FF 00 FF 00 00 00 00 00 00 00 FF 00 
00 FF 00 00 FF 00 00 00 00 00 00 00 00 00 00 FF 
00 00 00 00 00 00 FF 00 FF 00 00 FF 00 00 00 00 
00 00 00 00 00 FF FF FF 00 00 FF 00 00 00 FF FF 
00 00 FF 00 00 00 00 FF FF 00 00 FF FF FF 00 00 
00 FF 00 00 00 00 FF 00 FF FF FF 00 FF FF FF FF 
FF FF 00 00 00 00 FF FF 00 00 FF 00 00 00 00 00 
FF FF FF 00 00 FF FF 00 FF 00 00 00 00 FF 00 FF 
00 00 FF 00 FF FF 00 00 00 FF 00 FF 00 00 00 00 
00 FF FF 00 FF 00 00 00 FF 00 00 FF 00 00 00 00 
00 00 FF 00 00 00 00 00 FF 00 00 FF FF 00 00 00 
00 00 00 FF 00 00 00 00 00 00 FF 00 00 00 FF 00 
00 00 00 00 00 00 00 00 FF 00 FF 00 FF 00 00 FF 
00 00 FF FF FF 00 FF 00 00 00 00 00 FF FF FF 00 
00 00 00 00 FF 00 00 00 FF FF FF 00 00 00 00 00 
FF FF FF 00 FF 00 00 FF 00 FF 00 FF FF FF 00 00 
FF 00 FF FF 00 00 00 00 FF FF FF FF 00 FF FF 00 
00 00 00 00 FF FF FF FF 00 FF FF 00 00 FF 00 00 
FF 00 00 00 00 00 00 00 00 00 FF 00 00 00 00 00 
FF 00 00 00 00 00 00 00 FF 00 00 00 00 FF 00 00 
00 00 00 00 00 FF 00 FF 00 FF 00 FF 00 00 00 00 
00 FF FF FF FF FF 00 00 FF FF 00 00 00 00 00 00 
00 00 FF FF FF 00 00 00 00 00 00 00 FF 00 00 00 
FF 00 FF 00 00 00 FF FF FF 00 00 00 00 FF FF 00 
FF FF 00 FF FF 00 FF FF 00 FF 00 00 FF FF 00 00 
FF 00 FF FF 00 00 00 00 FF 00 00 FF 00 00 00 00 
00 00 FF 00 00 00 FF FF 00 00 00 FF 00 00 00 00 
FF 00 00 00 FF 00 00 00 FF FF 00 00 00 00 00 00 
00 FF 00 FF 00 00 00 00 FF 00 00 00 FF 00 FF 00 
00 00 00 00 00 FF 00 00 00 FF 00 FF FF 00 00 00 
00 00 FF 00 00 00 00 FF FF FF 00 00 FF 00 00 00 
FF FF FF 00 00 00 00 FF FF 00 00 00 FF 00 FF FF 
00 00 FF 00 FF 00 FF 00 FF FF FF FF FF 00 00 FF 
00 FF 00 FF FF 00 00 00 00 FF FF FF 00 00 FF 00 
00 00 00 00 FF 00 00 00 00 00 00 FF 00 00 FF FF 
00 FF FF 00 00 00 FF 00 00 00 FF 00 FF 00 00 00 
FF 00 00 00 FF FF FF 00 00 00 00 00 00 00 00 00 
00 00 00 00 00 FF 00 00 00 00 00 FF 00 00 FF 00 
00 FF FF 00 00 FF FF 00 00 00 00 00 FF 00 FF 00 
00 00 FF 00 00 00 FF FF 00 00 00 00 FF 00 FF 00 
FF 00 FF 00 00 FF FF FF 00 00 00 00 FF 00 FF 00 
FF 00 00 00 00 00 00 FF 00 FF 00 00 FF 00 00 FF 
00 00 FF 00 00 FF 00 00 00 00 00 00 00 00 00 00 
FF 00 FF 00 FF 00 FF 00 FF 00 00 FF 00 00 00 00 
00 00 FF FF 00 FF FF 00 00 00 00 00 00 00 00 FF 
FF 00 00 FF 00 00 00 00 00 FF FF 00 FF 00 FF 00 
00 00 00 00 00 00 FF 00 00 FF 00 00 00 FF 00 00 
FF 00 00 00 00 00 00 00 FF 00 FF FF 00 00 FF FF 
FF 00 00 00 00 FF 00 FF 00 00 FF FF 00 00 00 00 
FF 00 00 FF FF 00 00 FF 00 00 00 00 FF 00 00 FF 
00 00 00 00 FF 00 00 00 00 00 FF 00 FF 00 00 00 
FF 00 00 00 00 FF 00 FF FF 00 00 00 FF FF FF 00 
00 00 FF 00 00 00 00 FF 00 00 00 00 00 00 00 00 
00 00 FF 00 FF 00 00 00 00 00 00 00 00 FF FF 00 
00 00 00 00 FF 00 00 00 FF 00 00 00 FF 00 FF 00 
00 00 00 00 00 00 00 00 FF 00 FF FF FF 00 00 00 
00 00 FF 00 FF FF 00 00 00 00 00 00 00 00 00 00 
00 FF 00 00 00 FF 00 FF 00 00 FF 00 00 FF 00 FF 
00 00 00 FF FF 00 00 00 00 00 00 00 FF FF FF 00 
FF 00 00 00 FF 00 FF 00 00 00 FF 00 00 FF 00 FF 
FF 00 FF FF 00 FF 00 00 00 FF 00 00 00 00 00 00 
00 00 00 00 00 00 00 00 FF 00 FF FF 00 00 FF 00 
00 00 FF 00 00 00 FF 00 FF FF 00 00 00 00 00 FF 
FF 00 00 FF 00 00 00 00 00 FF 00 00 FF 00 00 FF 
FF FF 00 00 FF FF 00 FF FF FF 00 FF FF 00 FF FF 
00 FF 00 00 00 00 00 00 00 00 FF 00 FF FF 00 FF 
00 FF FF 00 FF 00 00 00 00 00 00 00 00 00 00 FF 
FF 00 FF 00 00 00 FF FF 00 00 00 00 00 00 00 00 
00 00 FF FF 00 00 00 00 00 00 00 FF FF 00 FF FF 
FF 00 00 00 00 FF 00 FF FF 00 FF FF FF 00 00 00 
FF 00 00 00 FF 00 FF 00 00 FF FF 00 FF 00 00 00 
FF 00 FF 00 00 FF FF 00 00 FF 00 00 FF FF FF FF 
00 00 FF 00 00 00 FF 00 00 FF 00 FF 00 00 00 00 
00 00 FF FF 00 FF 00 FF 00 00 00 00 00 00 FF FF 
FF 00 FF 00 FF 00 00 00 FF FF FF 00 FF FF 00 00 
00 00 FF FF FF 00 00 FF FF 00 FF 00 FF FF 00 FF 
FF 00 00 FF 00 00 FF 00 00 00 00 00 00 FF 00 00 
FF 00 00 00 00 00 00 00 FF 00 FF FF FF 00 FF FF 
FF FF 00 00 00 00 FF 00 00 00 00 00 00 00 00 FF 
00 00 00 00 FF 00 00 FF 00 FF FF 00 00 00 00 00 
00 00 FF 00 00 00 00 00 FF FF FF 00 00 FF 00 FF 
FF 00 00 FF 00 00 00 00 00 00 00 FF 00 FF 00 00 
00 00 00 FF FF FF 00 00 FF FF FF FF FF 00 00 FF 
00 FF 00 FF 00 FF FF FF FF 00 00 00 00 FF 00 00 
00 00 00 00 00 00 00 00 FF 00 00 00 00 FF FF 00 
00 00 FF FF FF FF 00 FF 00 FF 00 00 00 00 FF 00 
00 00 00 00 00 00 FF 00 00 00 00 00 00 00 00 00 
FF 00 FF 00 00 00 00 FF 00 00 00 FF 00 00 00 00 
00 00 00 00 00 00 FF 00 00 00 FF 00 FF 00 00 00 
00 00 00 00 00 00 00 FF FF FF 00 00 FF 00 00 00 
00 FF 00 00 00 00 00 FF 00 00 FF 00 FF 00 00 FF 
00 00 00 00 00 00 00 00 FF 00 00 FF FF 00 FF 00 
00 00 00 00 00 00 FF FF FF 00 FF 00 00 FF 00 FF 
FF 00 00 00 FF 00 00 00 FF 00 00 00 00 00 00 00 
00 00 00 FF 00 FF 00 FF 00 00 00 00 FF 00 00 FF 
FF 00 00 00 00 00 FF 00 FF 00 00 FF FF FF FF 00 
00 00 FF 00 FF 00 FF 00 00 00 FF 00 00 00 00 00 
FF 00 00 00 FF 00 00 FF 00 FF 00 FF 00 00 00 FF 
00 FF FF FF 00 FF 00 00 00 FF 00 00 00 FF 00 00 
00 00 00 00 FF 00 FF FF FF 00 00 00 00 00 00 00 
00 00 00 00 FF 00 FF 00 00 00 00 FF 00 FF 00 FF 
00 FF FF 00 00 00 FF 00 00 00 00 00 00 FF FF 00 
00 FF 00 00 00 00 FF FF 00 00 00 FF 00 00 FF 00 
00 00 00 FF FF 00 00 00 00 00 FF FF 00 00 00 00 
00 FF FF FF 00 00 00 00 FF 00 00 FF 00 FF FF 00 
00 00 00 00 00 FF 00 FF 00 00 00 FF 00 FF 00 00 
00 00 00 FF 00 00 00 FF 00 00 00 00 00 00 00 00 
00 00 00 00 00 00 FF FF 00 00 FF 00 FF 00 00 00 
00 00 FF 00 00 FF 00 00 00 00 00 00 00 00 00 00 
00 00 FF FF FF FF FF 00 FF 00 00 00 FF 00 00 00 
00 00 00 00 00 FF 00 00 FF FF 00 00 00 FF FF 00 
FF FF FF 00 00 FF 00 00 00 FF 00 00 FF FF 00 00 
00 FF 00 00 FF FF 00 FF 00 FF 00 00 00 00 00 FF 
00 00 00 00 00 FF 00 FF 00 00 00 00 00 00 00 00 
00 00 FF FF FF 00 00 00 00 00 FF 00 00 FF 00 00 
00 00 FF 00 00 FF 00 00 00 00 00 00 00 00 00 FF 
00 00 00 00 00 FF FF 00 00 00 00 00 00 00 00 00 
FF FF 00 00 FF 00 00 00 00 FF 00 FF 00 00 00 FF 
00 FF 00 00 FF 00 00 FF 00 FF FF 00 00 00 00 FF 
00 00 FF 00 00 00 00 FF 00 00 00 00 00 00 00 FF 
00 00 00 00 00 00 00 FF FF 00 00 00 00 00 00 00 
00 00 00 00 00 FF FF FF 00 00 00 00 00 00 00 00 
00 00 00 FF FF 00 00 00 00 FF 00 FF 00 FF FF 00 
00 FF 00 FF FF 00 00 FF 00 FF 00 00 00 FF 00 FF 
00 FF 00 00 00 FF 00 00 FF 00 00 00 00 FF FF FF 
00 00 FF 00 00 00 00 FF FF 00 00 00 00 00 FF 00 
00 00 00 00 00 FF 00 00 FF 00 00 00 00 00 FF FF 
00 00 00 FF 00 00 FF 00 FF 00 00 00 FF 00 00 00 
FF FF 00 00 00 FF 00 00 00 00 00 00 FF 00 00 00 
00 00 00 00 FF FF 00 FF 00 FF 00 00 00 FF 00 FF 
00 00 FF 00 FF FF FF 00 00 00 00 00 00 00 00 00 
FF 00 00 FF FF 00 00 00 FF 00 00 00 00 00 FF 00 
FF FF 00 FF 00 FF 00 00 00 FF 00 00 00 00 00 00 
00 00 FF 00 FF FF 00 FF 00 00 FF FF 00 FF FF 00 
00 00 FF 00 00 00 00 FF 00 00 00 FF 00 FF FF 00 
00 00 00 00 00 00 00 00 00 00 00 FF FF 00 00 00 
FF FF 00 00 00 00 00 FF 00 00 00 00 00 00 00 FF 
FF 00 00 00 FF FF FF FF FF FF FF 00 00 FF FF FF 
FF 00 00 00 FF FF 00 FF 00 00 00 FF FF FF FF 00 
00 00 FF 00 FF 00 00 FF FF 00 00 00 FF 00 00 FF 
00 00 FF 00 00 00 00 FF 00 00 00 00 FF 00 FF 00 
00 00 00 FF 00 FF 00 00 00 FF 00 FF FF FF 00 00 
00 00 00 00 00 00 00 00 00 FF FF 00 FF 00 FF 00 
FF 00 FF 00 FF 00 00 00 FF FF 00 00 FF FF 00 00 
00 00 00 00 FF 00 00 00 00 00 00 FF FF 00 FF 00 
00 00 FF 00 FF 00 FF 00 FF 00 FF 00 FF FF FF 00 
00 00 00 00 00 FF FF 00 00 00 00 FF 00 00 00 00 
00 00 FF FF 00 FF FF FF 00 00 00 00 00 00 FF FF 
00 FF 00 00 00 00 00 00 00 00 00 00 FF 00 FF FF 
00 00 00 00 00 00 00 00 FF 00 00 FF 00 00 FF 00 
00 00 00 00 00 FF 00 00 FF 00 00 00 FF FF 00 00 
00 00 00 00 FF FF 00 FF 00 00 FF 00 FF 00 00 FF 
00 FF 00 00 00 00 FF 00 FF FF 00 00 00 00 00 FF 
00 FF FF 00 00 FF FF 00 00 00 00 00 FF 00 00 00 
00 00 00 FF FF 00 FF 00 FF 00 FF 00 FF 00 FF 00 
FF FF 00 00 00 FF 00 00 00 00 00 FF 00 00 FF FF 
00 00 00 FF FF FF 00 FF 00 FF 00 FF 00 FF FF FF 
FF FF 00 00 00 FF 00 00 00 FF 00 FF 00 00 FF 00 
00 FF 00 00 FF 00 FF 00 00 00 FF 00 00 00 00 00 
00 00 FF 00 FF 00 FF 00 FF 00 FF 00 00 00 00 00 
00 00 00 00 FF 00 00 00 00 00 00 00 FF 00 00 FF 
00 00 00 00 00 00 00 00 00 00 00 00 FF 00 FF 00 
00 00 00 FF 00 FF FF FF FF 00 00 00 00 00 00 FF 
00 00 00 00 00 FF 00 00 00 00 00 FF 00 00 FF FF 
00 00 00 FF 00 00 FF FF 00 00 00 00 00 00 00 FF 
FF FF FF 00 00 00 00 00 00 FF 00 FF 00 00 00 00 
00 00 00 FF 00 00 00 00 00 FF 00 FF 00 00 00 FF 
00 00 00 00 FF 00 00 00 00 00 FF FF FF 00 00 00 
00 FF 00 00 FF 00 FF 00 00 FF FF 00 00 00 00 00 
00 FF FF 00 FF 00 00 00 00 00 00 FF 00 00 00 00 
FF FF 00 00 00 00 FF FF FF FF 00 FF FF FF 00 FF 
00 00 00 00 00 00 FF 00 00 FF FF 00 FF 00 00 00 
FF 00 FF 00 00 00 00 FF FF FF 00 FF 00 FF FF FF 
FF 00 00 00 FF FF 00 00 00 00 00 00 FF FF 00 00 
FF 00 FF FF FF 00 00 FF 00 00 00 00 00 00 00 FF 
FF 00 FF 00 00 FF 00 00 FF FF 00 00 00 FF FF 00 
00 00 00 FF 00 FF 00 00 FF FF 00 FF FF 00 FF 00 
00 00 00 00 00 00 00 00 00 00 00 FF 00 00 00 00 
FF FF 00 00 FF 00 00 00 00 FF 00 00 FF FF 00 FF 
00 FF 00 00 00 00 FF 00 00 00 00 00 00 00 00 00 
00 FF 00 00 00 00 FF 00 FF 00 00 00 FF FF 00 00 
00 FF 00 00 00 FF FF 00 FF 00 FF FF 00 00 00 00 
FF FF FF FF 00 FF FF 00 FF 00 FF 00 FF 00 00 00 
00 00 FF FF 00 FF 00 00 00 00 00 00 00 FF 00 FF 
00 00 FF 00 00 00 FF FF 00 00 00 00 FF FF 00 00 
00 00 FF FF 00 00 00 FF FF 00 FF FF FF 00 FF 00 
00 FF 00 FF 00 00 00 00 FF 00 FF 00 00 00 00 FF 
00 00 00 00 00 FF FF FF FF 00 FF 00 FF FF 00 00 
00 00 00 00 00 FF 00 00 00 FF FF 00 00 00 00 FF 
FF 00 FF FF 00 FF FF 00 00 00 00 00 00 00 FF 00 
FF 00 00 00 00 00 00 FF FF 00 00 00 00 00 00 00 
00 00 00 FF 00 00 00 FF 00 00 FF 00 FF 00 FF 00 
00 FF 00 00 FF FF 00 00 FF 00 FF 00 FF FF 00 00 
FF FF FF 00 FF 00 FF 00 00 00 FF FF 00 00 FF 00 
FF 00 FF 00 FF 00 00 FF 00 FF 00 00 00 00 00 00 
FF 00 FF FF 00 FF 00 00 00 00 00 00 00 FF 00 00 
00 FF 00 00 FF 00 FF 00 00 FF 00 00 FF FF FF FF 
FF 00 FF FF FF 00 00 00 00 FF 00 00 FF 00 00 00 
00 FF 00 00 00 FF FF 00 FF 00 FF FF FF FF FF 00 
FF FF 00 FF 00 00 00 00 00 00 FF 00 FF 00 FF 00 
00 00 00 00 00 00 00 FF FF 00 00 00 FF 00 00 00 
FF 00 00 00 00 00 FF 00 FF FF 00 00 00 00 FF FF 
FF 00 00 FF FF FF 00 00 FF 00 00 00 00 00 00 FF 
00 FF 00 00 00 00 00 FF FF 00 00 FF 00 FF FF FF 
FF FF 00 00 00 00 00 00 00 00 00 00 00 00 FF 00 
00 00 FF 00 00 00 FF 00 00 00 00 00 00 FF 00 00 
00 00 00 00 00 FF 00 00 00 00 00 00 00 FF FF 00 
00 FF FF 00 FF FF FF FF FF FF 00 00 FF FF FF 00 
FF 00 00 FF 00 00 00 00 FF 00 00 00 00 00 FF 00 
00 00 FF 00 FF 00 FF FF 00 FF FF FF 00 00 00 00 
00 00 00 FF 00 00 00 00 00 00 00 FF 00 00 00 00 
00 FF FF 00 00 FF 00 00 FF FF 00 00 FF 00 00 00 
00 FF 00 FF FF FF 00 00 00 00 FF 00 FF 00 00 00 
00 00 00 FF FF FF 00 00 00 00 00 00 00 FF 00 FF 
FF FF 00 00 00 00 FF FF FF 00 FF 00 00 00 00 00 
00 00 FF 00 00 00 00 FF 00 00 FF FF FF 00 FF FF 
00 00 FF 00 FF FF 00 00 00 00 00 FF 00 00 FF 00 
00 00 FF FF FF 00 00 00 00 00 00 00 00 FF FF FF 
00 FF 00 FF 00 FF FF 00 00 00 00 00 00 00 FF FF 
FF 00 00 00 00 FF FF FF FF 00 FF 00 00 00 00 00 
00 FF 00 00 FF FF 00 00 00 FF FF 00 FF 00 FF FF 
00 00 00 FF 00 00 00 00 00 00 FF FF 00 FF 00 FF 
FF 00 00 00 00 00 FF 00 00 00 00 FF 00 00 00 00 
00 00 FF 00 FF 00 FF 00 00 00 00 FF FF 00 FF FF 
FF 00 FF FF 00 00 00 FF 00 FF 00 00 00 00 00 00 
FF 00 FF 00 00 00 00 FF 00 FF 00 00 00 00 00 00 
00 00 00 FF FF 00 00 FF 00 FF FF 00 00 00 00 00 
00 FF FF FF 00 00 00 00 FF 00 FF 00 00 FF 00 FF 
00 FF FF 00 FF 00 FF 00 FF 00 00 FF 00 00 00 00 
00 00 00 00 FF 00 00 FF FF 00 FF 00 00 00 FF 00 
00 00 00 00 00 00 FF 00 FF FF FF 00 FF 00 00 FF 
00 FF 00 00 00 00 00 FF 00 00 FF 00 00 FF 00 00 
00 00 FF FF 00 FF FF 00 00 FF 00 00 FF FF 00 00 
00 FF 00 00 00 00 00 00 FF 00 00 FF 00 FF FF 00 
00 FF 00 00 00 00 FF FF FF 00 FF FF FF 00 00 00 
00 00 00 FF 00 00 FF FF FF 00 00 FF 00 00 00 00 
00 00 00 00 00 FF FF FF FF FF 00 00 00 00 00 FF 
00 00 00 FF FF 00 FF 00 FF FF 00 FF 00 00 00 FF 
00 00 00 FF FF 00 FF 00 FF 00 00 00 00 00 FF FF 
00 00 FF FF 00 00 FF 00 00 00 FF 00 00 00 00 00 
00 00 FF FF 00 FF 00 00 FF FF 00 00 FF 00 00 00 
FF 00 00 FF 00 00 FF 00 FF 00 FF 00 FF FF 00 FF 
00 00 FF 00 FF FF FF FF 00 00 FF 00 FF 00 00 00 
00 FF 00 00 00 00 00 00 00 00 FF 00 00 00 FF 00 
00 00 FF FF 00 00 00 00 FF 00 FF 00 00 FF 00 FF 
00 00 FF 00 00 00 FF 00 00 00 00 FF FF 00 00 FF 
00 FF 00 FF 00 00 00 00 00 FF FF 00 00 00 FF 00 
00 FF 00 00 FF 00 FF 00 FF 00 00 00 00 FF FF 00 
FF 00 FF 00 FF FF 00 FF FF FF FF 00 00 00 00 FF 
00 00 00 00 00 FF 00 00 00 FF 00 00 FF 00 00 00 
00 00 FF 00 00 FF FF FF FF 00 00 FF 00 00 FF 00 
00 00 00 FF 00 00 FF 00 FF 00 00 00 00 FF 00 00 
00 FF 00 00 FF FF FF 00 00 FF 00 00 FF 00 FF 00 
FF 00 00 FF 00 00 FF 00 00 00 00 00 00 FF 00 00 
00 FF 00 00 00 00 00 00 00 00 00 FF 00 00 00 00 
00 FF 00 00 FF FF 00 FF 00 FF 00 00 00 00 00 FF 
00 FF FF FF 00 00 FF 00 FF 00 00 FF FF 00 00 00 
00 FF 00 FF FF FF 00 00 FF 00 FF 00 00 00 FF 00 
00 FF 00 FF 00 00 00 00 00 FF 00 00 00 FF 00 00 
00 00 FF 00 00 00 FF 00 00 00 00 00 00 00 00 FF 
00 00 00 00 FF FF FF FF FF 00 00 FF 00 00 FF FF 
00 00 00 FF 00 00 00 FF FF FF FF FF 00 00 00 00 
00 00 FF 00 00 00 00 00 FF 00 FF 00 00 FF 00 00 
00 FF 00 FF 00 00 FF 00 00 00 00 FF 00 00 FF 00 
00 FF 00 FF 00 FF FF FF 00 FF FF 00 00 00 FF 00 
00 00 00 00 FF FF 00 00 00 FF 00 00 FF 00 00 00 
FF 00 00 FF 00 00 00 00 00 00 00 FF FF 00 00 00 
00 00 00 00 00 00 FF 00 00 00 00 00 FF 00 00 FF 
FF 00 00 00 FF FF 00 00 FF 00 00 FF FF 00 FF 00 
00 00 FF 00 00 FF 00 FF 00 00 00 00 FF FF 00 00 
FF 00 00 FF 00 00 00 00 00 00 00 00 00 00 FF 00 
FF FF FF FF 00 00 FF FF FF FF 00 00 00 00 FF 00 
FF 00 00 FF 00 FF FF FF FF 00 00 FF 00 00 00 FF 
00 00 FF FF 00 00 FF 00 00 00 00 00 00 00 00 00 
FF FF FF 00 00 FF FF 00 FF 00 FF 00 00 00 00 FF 
00 FF 00 00 FF 00 00 00 00 FF 00 00 00 00 00 00 
00 00 00 00 00 00 00 00 00 00 00 00 00 00 00 FF 
FF FF 00 FF 00 00 FF 00 00 00 00 00 00 00 00 00 
00 00 00 00 00 00 00 00 FF 00 FF 00 00 FF 00 00 
00 00 00 00 00 00 00 FF 00 00 FF 00 FF 00 00 00 
FF FF 00 FF 00 00 00 FF 00 FF 00 00 00 00 FF FF 
FF 00 00 00 FF 00 FF 00 FF 00 00 00 FF FF 00 00 
00 FF 00 00 FF FF 00 00 00 00 00 00 00 FF 00 00 
FF 00 00 FF 00 00 FF 00 FF 00 00 FF FF 00 00 00 
FF FF 00 FF 00 00 FF FF 00 00 00 00 FF 00 00 00 
FF 00 00 00 FF FF 00 00 00 FF 00 00 FF 00 FF FF 
00 00 00 FF FF 00 00 00 00 FF FF FF 00 00 00 FF 
00 00 00 FF 00 00 00 00 00 FF 00 00 00 FF FF FF 
00 00 00 FF 00 FF 00 00 FF 00 00 00 FF 00 00 00 
FF FF 00 FF FF 00 FF 00 00 00 00 00 00 00 00 00 
00 00 FF 00 00 00 FF FF FF 00 00 00 00 FF 00 00 
00 00 FF 00 00 FF 00 00 FF 00 FF FF 00 00 FF 00 
00 FF 00 00 00 FF 00 00 FF 00 00 00 00 00 00 FF 
FF FF 00 FF FF FF 00 FF FF 00 00 00 00 00 FF 00 
00 00 FF 00 00 FF 00 FF 00 00 FF FF FF FF FF 00 
00 FF 00 00 FF 00 00 00 FF FF 00 00 00 00 00 FF 
00 FF FF FF FF FF 00 00 00 00 00 00 FF 00 00 00 
00 00 00 00 00 00 00 00 FF 00 00 FF 00 00 00 FF 
00 00 00 FF 00 FF FF 00 FF FF 00 FF 00 FF FF 00 
FF 00 FF FF 00 FF 00 00 FF 00 00 00 FF 00 FF FF 
00 00 FF 00 FF 00 FF FF 00 00 00 00 00 00 00 00 
00 00 00 FF FF FF 00 FF 00 00 FF FF 00 FF FF 00 
00 00 00 00 FF 00 FF 00 00 00 00 00 00 00 FF 00 
FF 00 00 00 00 00 00 00 FF FF FF 00 00 FF 00 FF 
FF FF 00 FF FF 00 FF 00 00 00 00 00 FF 00 00 00 
00 00 00 FF 00 00 00 00 00 00 00 00 FF 00 00 FF 
FF FF 00 FF 00 00 00 00 00 00 00 00 00 00 00 00 
00 00 00 FF FF 00 00 00 00 00 00 00 FF 00 00 00 
FF FF 00 FF 00 00 00 FF 00 00 FF FF FF FF 00 FF 
00 00 00 FF 00 00 00 FF 00 00 00 FF 00 00 00 00 
00 00 00 00 00 00 00 00 00 00 00 00 FF FF FF FF 
FF 00 FF 00 00 00 00 00 00 00 00 FF 00 00 00 00 
FF 00 FF FF 00 FF 00 00 00 00 00 FF 00 00 FF 00 
FF 00 00 FF 00 00 00 FF FF 00 00 00 FF FF 00 00 
00 00 00 FF 00 FF 00 00 00 FF 00 00 FF FF 00 00 
00 FF 00 00 00 00 00 FF FF FF FF 00 00 00 00 00 
00 FF 00 00 00 FF FF 00 00 00 00 00 00 FF 00 00 
FF FF FF FF 00 FF 00 FF 00 00 00 FF FF FF 00 00 
00 00 FF FF FF 00 FF FF 00 00 00 00 00 FF 00 FF 
00 FF 00 00 FF 00 00 00 00 00 00 00 00 FF 00 FF 
FF FF 00 00 00 00 00 00 FF 00 00 FF FF 00 00 00 
00 00 FF 00 00 00 00 00 FF 00 FF 00 00 FF FF 00 
00 00 00 FF 00 00 00 00 00 FF FF 00 FF 00 00 00 
00 FF 00 00 00 FF FF FF 00 00 FF 00 FF 00 00 00 
00 FF 00 00 00 00 00 FF 00 FF 00 00 00 00 00 00 
00 00 FF 00 00 00 FF 00 FF 00 00 FF 00 00 00 00 
00 00 FF 00 00 FF 00 00 00 00 FF FF 00 00 00 00 
00 FF 00 00 00 00 FF FF FF FF FF FF 00 FF 00 FF 
00 FF 00 00 00 00 FF 00 00 FF 00 00 00 00 00 00 
00 FF 00 FF 00 00 FF FF 00 00 00 FF 00 FF 00 00 
00 00 FF 00 00 00 00 00 00 00 00 FF 00 FF 00 FF 
00 FF FF 00 00 00 00 00 FF FF 00 00 00 00 FF 00 
FF 00 00 00 00 FF 00 00 FF FF 00 00 00 00 00 FF 
FF FF 00 00 00 00 00 FF FF FF 00 00 FF FF FF 00 
00 00 FF 00 FF 00 00 FF 00 00 FF 00 FF FF FF 00 
FF 00 00 FF 00 00 FF 00 00 FF 00 00 FF 00 FF FF 
00 00 FF 00 FF 00 FF 00 00 FF 00 FF FF 00 00 00 
FF 00 00 00 00 00 FF 00 00 00 00 FF 00 00 00 00 
FF FF 00 00 00 00 FF 00 00 00 00 00 FF 00 00 FF 
00 FF 00 00 00 FF FF 00 00 00 FF FF FF 00 FF FF 
FF 00 00 FF FF 00 00 00 FF 00 00 00 FF FF 00 00 
FF 00 00 FF 00 00 00 00 FF 00 FF FF 00 00 00 00 
FF 00 00 00 00 00 00 00 00 FF 00 00 00 FF 00 00 
00 FF FF 00 00 FF FF 00 00 00 00 FF FF FF 00 00 
FF 00 00 FF 00 00 FF FF FF 00 FF 00 00 00 00 FF 
FF 00 00 00 FF 00 00 00 00 FF 00 FF 00 00 00 FF 
00 00 FF 00 00 FF 00 00 00 FF FF FF FF 00 00 00 
00 FF FF 00 FF 00 FF 00 FF FF 00 FF 00 00 FF FF 
00 00 00 00 00 00 FF 00 00 FF 00 FF 00 FF 00 FF 
00 FF 00 00 00 FF 00 00 00 00 00 00 00 FF 00 00 
00 FF 00 FF 00 00 00 00 00 00 00 00 FF FF FF 00 
FF 00 00 00 00 FF 00 FF FF 00 00 00 00 00 00 00 
00 00 00 00 00 00 00 00 00 00 00 00 00 FF 00 FF 
00 FF 00 FF 00 00 00 FF 00 00 00 00 FF 00 00 FF 
00 FF 00 FF 00 00 00 00 FF 00 00 00 00 FF FF 00 
00 00 00 00 FF 00 00 FF FF 00 00 FF 00 00 00 00 
00 FF 00 FF 00 00 00 00 FF 00 00 00 FF 00 FF 00 
00 00 FF 00 00 00 00 00 FF 00 00 00 FF FF 00 FF 
00 00 FF FF 00 00 FF 00 00 00 FF 00 FF FF FF 00 
00 00 FF 00 FF 00 00 00 00 00 00 FF FF 00 00 00 
FF 00 FF 00 00 FF FF 00 FF 00 00 00 FF 00 00 00 
FF 00 00 00 FF FF FF 00 FF FF 00 FF 00 00 00 00 
00 00 FF 00 FF FF FF 00 00 00 FF 00 FF 00 FF 00 
00 00 FF 00 FF 00 00 FF 00 00 00 FF FF 00 FF FF 
00 FF 00 FF 00 FF 00 FF 00 FF FF FF FF 00 00 00 
00 FF 00 00 00 00 FF 00 FF 00 00 00 00 FF 00 FF 
00 00 FF 00 00 FF 00 00 00 00 00 00 FF 00 00 FF 
FF 00 00 FF FF 00 00 00 00 00 00 00 FF 00 FF 00 
FF FF 00 FF 00 FF 00 00 FF 00 00 00 00 FF 00 00 
00 FF FF FF 00 00 00 00 FF 00 00 FF 00 00 00 00 
00 00 FF FF 00 00 FF 00 00 00 00 00 FF FF FF FF 
00 00 FF 00 00 00 00 00 00 FF 00 FF 00 00 FF 00 
00 FF 00 00 FF FF 00 00 00 FF 00 FF 00 00 FF 00 
FF 00 00 FF 00 00 FF 00 00 FF 00 FF FF 00 00 00 
00 00 FF 00 00 00 00 00 FF 00 00 00 00 FF FF FF 
00 FF 00 00 FF 00 FF 00 00 00 00 FF FF 00 00 00 
FF FF FF 00 00 00 00 00 00 00 FF FF FF 00 00 FF 
00 FF 00 FF FF FF 00 00 FF 00 FF 00 FF FF FF 00 
FF FF 00 00 00 00 00 00 FF FF FF FF 00 00 00 00 
00 00 00 00 00 00 00 00 00 00 00 00 FF 00 FF 00 
00 FF FF 00 FF FF 00 FF 00 00 00 00 00 FF FF 00 
00 00 00 00 00 FF 00 FF 00 FF FF 00 00 FF FF 00 
00 00 FF 00 00 00 FF 00 FF FF 00 FF FF 00 00 FF 
00 00 00 00 00 FF 00 00 00 00 FF FF 00 FF 00 FF 
00 FF 00 FF FF 00 00 FF 00 00 00 00 00 00 00 FF 
FF FF 00 FF FF 00 00 00 00 FF 00 00 00 00 00 FF 
00 00 00 00 FF 00 00 00 00 00 FF 00 FF 00 00 00 
FF 00 00 00 00 FF 00 FF 00 00 00 FF 00 FF 00 FF 
00 00 00 00 FF 00 00 00 00 00 00 00 00 FF 00 00 
00 00 00 00 00 FF FF 00 00 00 00 00 FF FF FF 00 
00 00 FF 00 FF 00 00 00 00 00 FF 00 FF FF FF 00 
00 00 FF 00 00 FF FF 00 00 FF 00 00 FF 00 00 00 
00 00 FF FF 00 00 00 FF 00 00 FF 00 FF FF 00 00 
00 00 00 FF FF 00 FF 00 00 00 00 00 00 00 00 00 
FF 00 00 FF 00 FF FF 00 00 00 FF FF 00 00 00 00 
00 00 00 00 00 FF FF 00 FF 00 FF 00 FF 00 00 00 
00 00 00 00 00 FF 00 00 00 FF FF 00 FF FF FF FF 
FF FF 00 00 00 00 00 00 00 FF 00 00 FF 00 00 FF 
00 00 00 00 00 00 FF 00 FF 00 FF FF 00 00 00 00 
00 FF 00 FF FF FF 00 00 00 00 00 00 00 00 00 00 
00 00 FF 00 FF 00 FF FF FF FF 00 00 00 FF 00 00 
00 00 00 00 00 00 00 00 FF 00 FF 00 00 00 00 00 
FF FF 00 00 00 00 00 FF FF FF FF 00 00 FF 00 00 
00 00 00 00 00 00 FF 00 FF FF 00 FF FF 00 00 00 
00 FF FF 00 FF FF 00 00 00 FF FF 00 FF 00 00 00 
00 00 00 00 FF 00 00 00 00 00 00 FF 00 00 00 00 
00 00 00 FF 00 FF 00 00 00 00 FF 00 00 FF 00 FF 
FF 00 FF 00 00 00 FF 00 FF 00 00 00 FF FF 00 FF 
00 00 00 00 00 FF FF 00 00 FF 00 00 00 00 00 00 
00 00 00 00 00 00 00 00 FF 00 FF 00 00 FF 00 00 
00 00 FF FF 00 FF 00 00 00 00 FF FF 00 00 FF FF 
FF 00 00 00 00 00 FF FF FF 00 00 FF 00 00 00 FF 
FF FF FF 00 00 00 00 FF FF 00 FF 00 00 FF FF FF 
00 FF FF 00 00 FF 00 FF 00 00 FF FF FF FF FF 00 
FF 00 FF 00 FF 00 00 FF 00 00 FF 00 FF 00 00 00 
00 00 00 00 00 FF 00 00 00 00 FF 00 00 00 FF 00 
00 00 00 00 FF FF FF 00 00 00 00 FF FF FF FF FF 
FF 00 00 FF 00 FF 00 00 00 00 FF 00 00 00 00 FF 
00 00 FF 00 FF FF 00 FF 00 FF 00 FF 00 00 FF FF 
00 00 FF FF 00 00 00 00 FF FF FF 00 00 00 00 00 
00 FF FF 00 00 00 FF FF 00 00 00 00 FF 00 00 00 
00 00 00 00 FF 00 00 FF 00 00 FF FF 00 FF 00 00 
00 00 00 FF 00 FF 00 00 00 FF 00 00 FF 00 00 00 
00 00 00 00 00 00 00 FF 00 FF 00 FF 00 FF 00 00 
FF 00 00 00 00 FF 00 00 00 FF 00 00 FF FF 00 FF 
00 FF 00 FF 00 FF 00 FF FF FF FF 00 00 00 00 00 
FF 00 00 FF FF 00 00 00 00 FF 00 FF 00 FF FF 00 
00 FF 00 00 00 00 00 00 00 00 00 FF FF 00 FF 00 
FF 00 00 00 FF FF FF FF 00 00 FF 00 FF 00 FF 00 
00 00 00 FF 00 00 FF FF 00 FF 00 FF 00 00 00 FF 
00 FF 00 00 00 00 00 FF 00 FF 00 00 00 FF 00 00 
FF 00 FF 00 00 FF FF 00 00 00 00 FF FF 00 00 00 
FF 00 FF 00 FF FF FF FF 00 FF 00 00 FF FF 00 FF 
FF FF FF FF 00 FF FF FF 00 00 00 00 00 00 FF 00 
00 00 00 FF 00 00 00 FF 00 00 00 FF FF 00 00 00 
00 00 00 00 FF FF FF 00 00 FF 00 00 00 FF 00 00 
FF FF 00 FF 00 00 00 FF 00 00 00 00 00 FF FF 00 
00 FF 00 00 00 00 00 FF 00 00 00 FF 00 FF 00 00 
FF 00 00 00 FF FF 00 FF 00 00 00 00 00 00 00 FF 
FF 00 FF 00 00 00 00 FF FF 00 00 00 FF 00 FF 00 
00 00 FF FF 00 00 00 00 00 00 00 00 00 FF 00 00 
00 00 FF 00 FF FF 00 FF FF FF 00 00 00 00 FF FF 
FF 00 FF FF 00 00 00 FF 00 00 00 00 00 00 FF 00 
00 00 FF 00 00 FF 00 00 00 FF 00 00 00 00 00 FF 
FF 00 FF 00 00 FF 00 00 00 00 00 FF 00 00 FF FF 
00 00 00 00 FF 00 00 00 00 00 FF 00 FF 00 00 00 
FF 00 FF FF FF 00 00 00 FF 00 00 00 00 00 00 00 
00 00 00 00 00 FF 00 FF 00 00 00 FF 00 00 00 FF 
00 00 FF FF 00 00 FF 00 FF 00 00 00 FF 00 00 FF 
FF 00 00 00 00 FF FF 00 FF FF 00 FF FF 00 FF FF 
00 00 FF 00 FF 00 00 00 FF 00 00 00 00 00 00 00 
00 00 00 00 FF 00 FF 00 00 00 00 00 FF 00 00 00 
FF 00 00 FF 00 00 00 FF 00 00 00 FF FF 00 00 00 
00 FF 00 00 00 00 FF 00 00 00 FF FF 00 00 00 00 
00 00 00 00 00 00 00 00 FF 00 FF FF 00 FF 00 00 
FF FF FF FF FF 00 00 00 00 FF 00 FF 00 FF 00 FF 
FF 00 FF 00 FF 00 00 00 FF 00 00 00 FF FF 00 FF 
00 00 00 00 FF FF FF 00 00 FF 00 FF 00 00 00 00 
00 00 00 00 00 FF FF 00 FF FF 00 FF 00 00 00 00 
00 00 00 00 00 FF 00 FF 00 FF 00 00 00 FF FF FF 
FF 00 00 00 00 FF 00 00 00 00 FF FF 00 00 FF FF 
FF FF FF 00 FF 00 00 00 FF FF 00 FF 00 00 00 00 
00 00 FF FF 00 00 FF 00 00 00 00 00 FF 00 00 00 
00 00 00 FF FF FF 00 00 00 FF 00 00 00 00 FF FF 
FF 00 00 FF 00 00 00 FF FF FF 00 00 FF 00 00 00 
00 00 00 00 00 00 FF FF 00 00 FF 00 00 00 FF FF 
FF 00 FF 00 00 00 FF 00 FF FF 00 00 00 00 FF 00 
FF 00 00 FF FF 00 00 00 00 00 00 00 FF 00 00 00 
00 00 FF FF 00 00 FF FF 00 FF 00 00 FF FF 00 00 
00 FF 00 FF FF 00 FF FF 00 00 00 00 00 00 00 FF 
00 00 00 FF FF 00 00 FF FF FF FF FF 00 00 00 FF 
00 00 00 00 FF FF FF 00 00 FF FF FF FF 00 00 00 
00 FF FF 00 00 00 FF FF 00 00 FF FF 00 00 00 00 
00 FF 00 00 FF 00 FF 00 00 00 00 00 00 00 FF 00 
FF 00 FF FF FF 00 FF FF 00 00 FF 00 00 00 00 FF 
00 FF FF FF 00 00 00 00 00 00 00 FF FF 00 00 FF 
00 FF 00 00 00 00 00 FF 00 00 00 FF 00 00 00 00 
00 00 00 00 00 00 00 00 00 FF 00 00 FF FF FF 00 
FF 00 00 FF 00 00 FF 00 00 00 FF 00 FF 00 00 00 
00 FF 00 00 00 FF FF 00 00 FF FF 00 00 00 00 FF 
FF 00 FF 00 00 FF 00 00 00 FF FF 00 00 00 00 00 
00 00 00 00 FF 00 00 00 FF FF 00 00 00 00 00 FF 
00 FF 00 00 00 00 00 00 00 00 FF 00 00 FF 00 00 
00 00 00 FF FF FF 00 00 00 00 FF 00 FF FF FF FF 
FF FF 00 00 FF 00 FF FF 00 FF FF 00 00 00 00 00 
FF 00 00 00 FF FF FF 00 00 00 00 00 00 FF FF FF 
00 FF 00 00 FF FF 00 FF FF 00 00 FF 00 FF FF 00 
FF 00 00 00 00 00 FF 00 00 FF 00 FF 00 00 FF 00 
FF 00 00 FF 00 00 00 00 00 FF 00 00 00 00 00 00 
FF 00 FF 00 00 00 00 00 FF 00 00 00 00 00 00 00 
00 FF FF 00 00 00 00 FF 00 00 00 FF 00 00 00 00 
00 FF 00 FF 00 00 FF FF FF 00 FF 00 FF 00 00 00 
00 00 FF 00 FF 00 FF 00 FF FF 00 00 FF 00 FF 00 
00 00 00 00 00 FF 00 00 00 00 00 FF FF 00 FF 00 
00 FF 00 00 FF 00 00 FF 00 00 00 00 00 FF 00 00 
FF 00 FF 00 00 FF 00 00 FF 00 FF 00 FF 00 00 00 
00 00 00 00 00 00 FF FF 00 00 FF 00 00 00 00 00 
00 FF 00 00 00 FF 00 00 00 00 00 00 FF 00 00 FF 
00 FF FF 00 00 00 00 00 00 00 00 00 FF 00 00 00 
@00104000
FF FF 00 00 00 FF 00 FF FF FF 00 00 00 FF 00 00 
00 FF FF 00 00 00 00 00 00 FF 00 00 00 00 00 00 
FF FF 00 00 00 FF FF 00 FF 00 FF FF 00 FF 00 00 
FF FF FF FF 00 00 00 00 00 00 00 FF 00 00 FF FF 
00 00 00 FF 00 00 00 00 FF FF 00 FF 00 00 00 00 
00 00 FF 00 FF 00 00 00 00 00 00 00 FF 00 00 00 
00 00 FF FF FF FF 00 00 00 00 00 00 00 FF 00 FF 
00 00 00 00 00 FF FF 00 FF 00 FF 00 00 00 00 00 
00 FF 00 00 FF 00 00 00 00 FF FF 00 00 00 FF 00 
FF 00 00 00 FF 00 00 00 FF 00 00 00 FF 00 00 00 
00 00 00 00 00 00 00 00 FF 00 00 00 00 00 00 00 
FF FF FF FF 00 00 00 FF FF 00 FF 00 00 00 00 FF 
00 00 FF 00 00 00 FF 00 00 00 00 FF FF FF FF FF 
00 FF FF FF 00 00 00 00 FF 00 FF 00 00 FF FF FF 
FF FF 00 00 FF 00 00 00 00 FF 00 00 00 FF 00 00 
FF 00 00 00 00 FF 00 00 00 FF FF 00 00 00 00 00 
FF 00 00 FF 00 FF 00 00 00 00 FF 00 00 00 FF FF 
FF 00 FF FF 00 00 00 00 00 FF FF 00 00 FF FF 00 
00 FF 00 00 00 00 FF FF 00 00 FF 00 00 FF FF 00 
00 FF FF 00 00 00 00 00 00 00 FF 00 FF 00 00 FF 
00 FF 00 00 FF 00 00 FF 00 FF 00 00 00 00 FF 00 
FF 00 FF FF 00 00 00 00 00 FF FF 00 00 00 FF 00 
FF 00 00 00 00 FF 00 00 FF 00 00 00 00 FF 00 00 
00 00 00 00 00 00 00 FF FF 00 00 FF FF 00 FF 00 
00 00 FF 00 00 00 00 FF 00 00 00 FF 00 FF FF 00 
00 FF 00 00 FF FF 00 00 00 00 00 00 00 00 FF FF 
FF 00 00 FF 00 FF FF 00 00 FF 00 00 00 FF 00 FF 
00 FF 00 00 00 FF FF 00 00 00 00 FF 00 00 00 00 
00 00 00 00 FF FF FF 00 FF FF FF 00 00 00 FF FF 
00 FF FF FF FF 00 FF FF FF 00 FF 00 00 00 00 00 
00 00 FF 00 00 00 FF FF 00 00 FF FF FF 00 00 00 
00 00 FF FF FF FF FF 00 00 00 FF 00 00 00 FF 00 
00 00 FF 00 00 00 FF 00 FF FF FF 00 00 FF FF 00 
00 FF 00 FF 00 00 00 FF 00 00 FF 00 FF FF 00 FF 
FF FF FF 00 00 FF 00 00 00 FF 00 00 FF 00 FF FF 
00 00 FF 00 00 00 00 00 00 00 FF FF FF 00 FF FF 
00 00 FF FF 00 FF 00 00 FF 00 FF 00 00 00 00 FF 
00 00 00 00 FF 00 FF FF 00 00 FF 00 FF 00 FF 00 
FF FF 00 00 FF FF FF 00 FF 00 00 00 FF FF 00 00 
00 00 00 00 00 00 00 00 00 FF FF 00 00 FF FF 00 
00 FF FF FF 00 00 00 00 FF FF 00 00 00 FF FF 00 
00 00 00 00 00 00 FF FF 00 00 00 00 00 FF FF FF 
00 00 FF 00 00 FF 00 00 00 FF 00 FF 00 00 00 00 
00 00 00 00 FF 00 00 FF FF 00 00 00 00 00 FF FF 
00 00 FF 00 00 00 00 00 00 00 FF 00 00 00 00 FF 
00 00 00 00 00 00 FF 00 00 00 00 00 00 00 00 FF 
FF 00 FF 00 00 00 00 00 FF 00 00 00 00 00 00 FF 
00 00 FF FF 00 FF FF 00 FF 00 FF 00 00 00 00 FF 
00 00 00 FF 00 00 00 00 00 FF 00 FF 00 FF 00 00 
00 00 FF FF 00 FF FF 00 00 00 00 FF FF FF 00 00 
FF 00 FF 00 FF FF 00 00 FF FF FF 00 00 00 FF 00 
00 FF FF 00 00 00 00 FF FF 00 00 00 FF FF 00 FF 
FF 00 FF 00 00 00 00 00 FF 00 FF 00 00 FF 00 FF 
00 00 00 00 00 00 00 00 00 FF FF 00 00 FF 00 FF 
FF 00 00 FF FF FF 00 00 FF 00 FF 00 FF FF 00 00 
FF 00 00 00 00 FF 00 00 00 FF 00 FF 00 00 00 00 
00 00 00 FF 00 00 00 00 00 FF 00 FF 00 FF FF 00 
FF 00 00 00 00 00 00 FF 00 00 00 00 00 FF 00 FF 
00 00 FF FF 00 FF 00 00 FF FF 00 00 00 00 FF 00 
00 00 00 FF 00 00 00 00 FF FF 00 00 00 00 FF FF 
00 00 00 00 00 00 00 00 FF FF 00 00 FF FF 00 00 
FF 00 FF 00 00 00 00 FF 00 00 FF 00 00 00 FF 00 
FF FF FF FF 00 00 FF 00 FF FF 00 00 00 FF 00 00 
00 00 FF 00 00 00 FF 00 FF 00 00 00 FF FF 00 FF 
FF 00 00 00 00 00 00 FF FF 00 00 00 00 00 00 00 
00 00 FF FF 00 FF 00 FF 00 FF FF 00 FF 00 FF FF 
FF 00 00 FF 00 00 FF 00 FF 00 00 FF FF 00 00 FF 
FF 00 FF FF 00 00 00 00 00 00 00 00 FF 00 FF 00 
00 00 00 00 FF 00 FF 00 00 FF 00 FF 00 00 FF 00 
00 00 00 FF 00 FF 00 FF 00 00 00 00 FF 00 00 00 
FF FF FF 00 00 00 00 FF 00 00 FF FF FF 00 00 00 
FF 00 00 00 00 00 00 00 00 FF 00 FF FF 00 00 00 
00 00 FF 00 FF 00 00 FF 00 00 FF 00 00 00 FF 00 
00 00 FF 00 FF FF 00 00 00 00 FF 00 FF FF 00 00 
00 00 00 00 FF 00 00 00 00 FF 00 00 00 00 00 FF 
FF FF 00 FF 00 00 FF FF 00 FF 00 00 00 00 00 00 
FF FF FF FF 00 00 FF 00 00 00 FF FF FF 00 00 00 
FF FF 00 00 FF 00 FF 00 FF FF FF 00 00 00 00 00 
00 00 00 FF FF 00 00 00 00 FF FF 00 00 00 FF 00 
00 00 00 FF 00 FF 00 00 FF FF FF 00 FF 00 00 00 
FF 00 00 FF FF 00 FF 00 00 FF 00 FF 00 00 00 FF 
00 00 00 FF 00 00 FF 00 FF 00 00 00 FF 00 00 00 
00 FF 00 00 00 00 00 00 00 00 00 00 00 FF 00 00 
FF 00 00 00 FF FF 00 FF 00 00 00 FF 00 00 00 00 
00 FF 00 FF 00 FF 00 00 00 FF FF 00 00 00 FF FF 
FF 00 00 00 00 00 00 00 FF 00 00 00 FF FF FF 00 
00 00 FF 00 FF FF FF FF 00 FF 00 FF 00 00 00 00 
00 00 00 00 00 00 00 00 00 00 00 00 FF 00 FF 00 
00 00 FF FF 00 00 FF FF FF FF 00 00 00 FF 00 00 
00 FF 00 00 00 FF 00 00 00 FF 00 FF 00 FF FF 00 
00 00 FF FF FF 00 00 00 00 00 FF 00 00 00 FF 00 
00 00 FF 00 00 00 FF 00 00 FF 00 00 00 00 00 FF 
FF FF FF 00 00 FF FF 00 00 00 00 FF 00 FF 00 00 
00 00 00 00 00 00 FF 00 00 00 00 00 FF 00 FF FF 
00 00 00 00 00 FF FF FF 00 FF FF 00 00 FF FF 00 
00 00 00 00 FF 00 00 FF 00 00 FF 00 FF 00 00 FF 
FF 00 00 00 00 00 FF 00 FF 00 00 00 00 FF FF 00 
00 00 00 FF 00 00 FF FF 00 FF 00 00 00 00 00 00 
00 FF 00 00 FF 00 FF FF 00 00 FF FF 00 00 00 00 
00 00 00 00 00 00 FF FF 00 FF 00 00 FF FF 00 FF 
00 00 00 00 00 00 FF 00 00 FF 00 FF 00 00 00 00 
FF FF 00 00 FF 00 00 FF 00 FF FF FF 00 00 FF 00 
00 00 00 FF 00 00 00 FF 00 00 00 00 00 00 00 00 
FF 00 00 FF 00 00 00 00 00 00 00 00 FF 00 00 00 
00 FF 00 00 00 00 FF 00 00 FF 00 00 00 FF FF 00 
FF 00 00 00 FF FF FF FF FF 00 00 FF FF FF FF FF 
00 00 00 00 FF 00 FF 00 00 00 FF 00 00 00 00 00 
00 FF 00 00 00 FF FF 00 00 FF 00 00 00 00 00 FF 
FF 00 FF 00 FF 00 00 FF 00 FF 00 00 00 FF 00 FF 
00 00 FF 00 00 00 00 FF 00 FF 00 00 00 00 00 FF 
00 00 00 00 FF FF 00 00 00 00 00 FF FF FF 00 00 
FF FF 00 00 00 FF 00 00 FF FF 00 00 00 00 FF 00 
FF 00 00 00 00 FF 00 00 FF FF 00 FF 00 FF 00 00 
FF 00 FF FF 00 00 00 00 00 00 00 FF 00 FF 00 FF 
FF 00 00 00 FF FF 00 FF FF FF 00 00 FF FF 00 00 
00 00 00 00 FF 00 00 FF 00 FF FF FF 00 00 FF FF 
00 00 00 FF 00 FF 00 FF 00 00 FF 00 FF 00 00 FF 
00 00 00 00 00 FF FF 00 00 FF FF 00 00 FF 00 FF 
00 FF 00 00 00 00 FF FF 00 FF FF FF 00 00 00 00 
00 FF 00 00 00 00 00 FF 00 00 00 00 FF FF 00 00 
00 00 00 00 00 00 00 FF 00 00 00 00 00 00 00 FF 
FF FF 00 00 FF 00 00 00 00 00 FF 00 FF FF 00 00 
00 00 00 00 00 00 FF 00 FF 00 00 FF 00 00 FF 00 
FF FF 00 00 00 00 FF 00 00 00 FF 00 00 FF FF 00 
00 00 00 00 00 00 FF 00 FF 00 00 FF 00 FF 00 00 
00 00 FF FF FF FF 00 00 FF 00 FF FF 00 FF FF 00 
FF 00 FF 00 00 00 00 00 00 FF 00 FF 00 00 00 00 
FF 00 00 00 00 FF 00 00 00 00 00 00 00 00 FF 00 
FF 00 00 00 00 00 00 00 00 00 FF 00 00 00 00 00 
00 00 00 FF 00 00 00 FF 00 00 00 00 00 FF 00 00 
00 00 00 00 FF FF 00 FF 00 00 00 00 00 FF FF 00 
00 00 00 00 00 00 FF 00 00 00 FF FF 00 FF 00 00 
00 00 00 00 00 00 00 00 00 00 FF 00 00 00 00 FF 
00 00 FF FF 00 00 00 FF FF FF 00 FF FF FF 00 FF 
FF 00 00 FF FF 00 FF 00 00 00 00 FF FF 00 00 FF 
FF 00 00 FF 00 00 00 00 00 FF 00 FF FF 00 FF 00 
00 00 00 FF 00 FF 00 00 00 00 FF FF FF 00 00 00 
00 00 00 FF 00 00 00 00 00 00 00 FF FF 00 00 00 
00 00 00 FF 00 00 00 00 FF FF 00 00 FF FF 00 00 
FF 00 FF 00 00 00 00 00 FF FF FF FF 00 FF FF 00 
00 00 00 00 00 00 00 FF 00 00 00 FF 00 00 FF 00 
00 FF 00 00 FF 00 00 FF 00 FF 00 00 00 FF 00 00 
00 00 FF 00 00 00 00 FF FF 00 FF 00 FF 00 00 00 
FF 00 00 FF FF 00 00 FF 00 00 FF 00 00 00 00 00 
00 FF 00 00 FF FF 00 FF 00 00 FF FF 00 FF 00 00 
00 FF FF FF 00 FF 00 FF 00 00 00 00 FF 00 00 00 
00 FF FF FF 00 00 00 00 00 00 FF FF 00 FF 00 00 
FF 00 FF 00 00 00 00 00 00 00 00 00 FF FF 00 00 
00 00 00 FF FF FF 00 00 FF 00 FF 00 FF FF 00 00 
00 FF 00 00 FF 00 00 00 00 FF 00 00 00 00 FF FF 
00 FF FF 00 FF 00 FF 00 FF 00 00 FF 00 00 00 00 
00 00 00 00 00 FF FF 00 00 00 FF 00 00 00 00 00 
00 00 00 FF 00 00 00 00 00 FF 00 00 00 00 FF 00 
00 00 FF FF 00 00 00 00 FF 00 FF FF 00 00 FF 00 
00 00 00 00 00 00 FF FF FF FF 00 00 FF 00 00 00 
00 00 00 00 00 FF 00 00 00 FF 00 00 FF FF 00 00 
00 00 00 00 00 00 00 FF 00 00 FF 00 00 00 FF 00 
00 00 FF 00 FF FF 00 00 00 00 00 00 FF 00 FF 00 
FF 00 00 00 FF FF 00 00 00 00 FF 00 00 00 00 00 
00 00 00 00 FF FF 00 00 FF FF FF FF 00 00 FF 00 
FF FF 00 FF FF 00 00 FF 00 FF FF 00 00 00 00 00 
FF 00 00 FF FF FF 00 00 00 FF 00 FF 00 00 00 FF 
FF 00 00 00 00 00 00 00 FF 00 FF 00 FF FF FF 00 
00 00 00 00 FF 00 FF FF 00 00 00 00 00 00 00 FF 
FF FF 00 00 00 00 00 00 FF 00 00 00 00 FF FF 00 
FF FF 00 00 00 00 00 FF 00 00 00 00 FF FF FF 00 
00 00 FF 00 00 00 00 00 FF 00 00 00 FF 00 FF FF 
FF FF 00 FF 00 FF FF FF 00 FF FF 00 00 FF FF FF 
FF FF 00 00 00 00 00 FF FF FF 00 FF FF 00 00 FF 
FF 00 00 00 00 00 00 00 00 00 FF FF 00 FF 00 00 
00 00 00 FF 00 FF 00 00 00 00 00 00 FF 00 FF 00 
00 00 FF 00 00 00 00 FF FF 00 00 00 FF FF 00 00 
00 00 FF FF 00 00 00 00 FF 00 FF 00 FF 00 FF FF 
00 FF FF 00 00 00 00 00 00 FF 00 00 FF 00 00 FF 
00 FF FF FF 00 FF 00 00 FF FF 00 FF 00 00 00 00 
FF FF FF 00 FF 00 FF 00 00 00 FF 00 00 00 00 00 
FF 00 00 FF 00 FF FF 00 FF 00 FF 00 00 00 00 00 
FF 00 FF 00 00 FF FF 00 FF 00 FF 00 00 00 00 00 
00 00 FF FF 00 FF FF 00 FF FF 00 FF FF 00 FF FF 
00 00 00 00 00 00 00 FF 00 00 FF 00 00 FF FF 00 
00 00 00 00 FF FF FF 00 00 FF 00 00 FF FF FF 00 
FF 00 00 00 FF 00 00 00 00 00 00 00 00 00 00 FF 
FF 00 00 FF 00 00 00 FF FF 00 FF 00 FF FF FF FF 
FF FF FF 00 00 FF FF FF FF FF 00 00 00 FF 00 00 
00 00 FF 00 00 00 00 00 00 00 00 FF FF 00 00 00 
00 00 00 FF 00 00 00 FF 00 00 00 00 FF 00 FF FF 
FF 00 00 00 00 00 FF 00 00 00 00 FF FF FF 00 FF 
00 00 00 00 FF 00 00 00 00 00 FF 00 00 00 00 FF 
FF 00 FF 00 00 FF FF 00 00 00 00 00 00 00 00 FF 
00 FF 00 00 FF 00 00 00 FF 00 00 00 00 FF 00 00 
FF FF 00 00 FF 00 00 FF 00 00 00 FF FF FF 00 00 
00 00 FF 00 00 00 FF FF 00 00 FF 00 00 FF 00 FF 
00 00 00 00 00 00 FF 00 00 00 00 FF FF FF 00 00 
00 00 00 00 FF 00 FF 00 00 00 00 00 00 00 FF FF 
00 FF FF FF 00 00 00 00 00 00 00 00 00 FF 00 FF 
00 FF FF FF FF 00 00 00 FF 00 FF FF 00 FF 00 00 
FF FF 00 00 00 00 00 FF 00 00 FF FF 00 00 00 00 
FF FF 00 FF 00 00 00 00 FF 00 00 00 00 00 FF 00 
00 FF FF 00 FF FF 00 FF 00 FF 00 FF 00 00 FF FF 
00 00 00 00 FF 00 FF 00 FF 00 00 00 00 00 00 00 
00 00 FF FF FF FF 00 00 00 FF FF 00 00 FF 00 00 
00 00 FF FF FF 00 00 FF 00 FF 00 FF FF 00 00 00 
FF 00 00 00 00 FF 00 FF 00 FF 00 FF 00 00 00 00 
00 FF 00 00 00 00 00 FF 00 00 00 00 FF FF 00 00 
00 00 00 00 00 00 FF 00 FF FF FF 00 FF 00 FF 00 
FF FF FF 00 FF 00 FF FF 00 00 00 00 FF 00 00 FF 
00 00 00 FF 00 00 FF 00 00 FF 00 FF FF FF 00 FF 
FF FF FF FF 00 00 FF 00 FF FF 00 FF 00 00 00 00 
FF 00 FF 00 FF FF 00 FF 00 00 FF FF 00 00 00 00 
00 00 00 FF 00 00 00 00 00 FF FF 00 00 00 00 00 
00 00 00 00 00 00 FF FF FF FF FF 00 00 00 00 00 
00 00 00 00 00 00 FF FF 00 00 00 00 00 00 00 00 
00 00 00 00 00 00 00 00 00 00 00 FF 00 00 FF 00 
FF 00 FF 00 00 00 00 00 FF 00 00 00 FF 00 00 FF 
00 00 00 FF 00 FF FF 00 00 00 00 FF 00 00 00 FF 
00 00 00 00 FF FF FF 00 00 00 00 00 00 00 00 00 
FF FF FF 00 FF FF FF 00 FF FF FF 00 FF FF 00 FF 
00 00 00 FF FF 00 00 00 00 00 FF 00 FF 00 00 00 
FF 00 FF 00 FF 00 00 00 00 00 00 FF FF 00 FF FF 
00 00 FF 00 FF 00 FF 00 FF 00 00 00 00 00 00 00 
FF FF 00 00 00 FF FF 00 FF 00 00 FF 00 FF FF 00 
FF FF FF FF 00 00 FF 00 FF FF 00 00 00 FF 00 00 
FF FF 00 FF 00 00 FF 00 00 FF 00 FF 00 00 00 00 
00 FF 00 00 00 00 FF 00 FF FF 00 00 00 00 00 00 
00 FF 00 00 00 00 FF FF 00 00 00 00 FF 00 00 00 
00 00 FF FF 00 00 FF 00 00 FF 00 FF FF 00 FF FF 
00 00 00 FF 00 FF 00 00 FF 00 00 FF 00 00 00 00 
FF FF FF 00 00 00 FF 00 00 00 00 00 FF 00 00 00 
00 00 FF 00 00 00 00 FF 00 00 00 FF 00 FF FF 00 
00 FF FF 00 00 00 00 00 FF 00 FF FF FF FF FF 00 
FF FF 00 FF FF 00 FF 00 FF 00 FF 00 FF FF 00 00 
00 00 00 00 00 00 00 00 00 FF 00 00 00 00 FF 00 
00 00 00 00 FF FF 00 FF 00 00 00 FF 00 00 FF FF 
00 00 00 00 00 00 00 00 FF 00 00 00 FF 00 00 00 
00 FF 00 00 FF FF 00 FF 00 00 00 00 00 FF 00 FF 
00 00 FF FF 00 00 FF 00 00 00 00 FF FF 00 FF FF 
FF 00 00 00 00 00 FF 00 00 00 FF 00 00 FF 00 00 
FF 00 FF 00 00 00 00 FF 00 00 00 00 00 00 00 FF 
00 00 FF 00 00 00 FF 00 FF 00 FF 00 00 FF 00 FF 
FF 00 00 00 00 00 FF FF 00 00 00 00 00 00 FF 00 
00 00 00 FF 00 FF 00 FF 00 00 00 00 FF FF FF FF 
00 00 00 00 00 FF FF 00 00 00 00 FF FF 00 00 00 
00 00 FF 00 00 FF 00 00 FF 00 00 FF 00 00 00 00 
00 00 FF 00 00 00 00 00 FF 00 00 FF FF 00 FF 00 
FF 00 00 00 00 00 00 00 FF 00 00 00 FF 00 00 00 
FF 00 FF FF FF 00 00 FF FF 00 00 00 00 00 00 00 
00 00 FF FF FF 00 FF FF 00 FF 00 00 00 00 00 FF 
00 FF FF 00 00 FF 00 FF FF 00 00 00 FF 00 00 00 
FF FF 00 00 00 FF 00 00 00 FF FF 00 00 FF 00 00 
00 00 00 00 FF 00 00 FF FF FF 00 FF FF 00 00 FF 
FF 00 00 00 FF 00 00 00 00 00 FF 00 FF FF 00 00 
00 00 00 00 00 00 FF 00 00 00 00 FF 00 00 FF FF 
FF FF FF FF 00 00 FF 00 00 FF 00 00 00 00 00 00 
00 00 00 00 00 00 FF 00 00 00 00 00 00 FF FF 00 
00 FF 00 FF FF 00 FF 00 00 00 00 FF 00 00 FF 00 
00 00 00 FF 00 00 00 00 FF 00 FF 00 00 00 00 00 
00 00 FF 00 00 FF FF FF 00 00 FF 00 00 FF FF FF 
00 00 00 FF FF FF 00 FF 00 00 00 00 FF FF 00 FF 
00 00 FF 00 00 FF 00 00 FF 00 00 00 00 00 FF 00 
00 00 FF 00 FF 00 00 00 FF 00 00 FF 00 FF 00 00 
FF 00 00 00 00 FF 00 FF 00 FF FF 00 FF FF 00 00 
FF 00 FF FF 00 FF 00 00 00 FF FF FF 00 00 00 FF 
00 00 00 FF FF FF 00 FF 00 00 FF 00 FF 00 FF FF 
00 00 00 FF 00 00 FF FF 00 FF 00 00 00 FF 00 FF 
FF FF 00 00 00 FF 00 00 00 00 00 00 00 00 00 00 
00 00 00 FF FF 00 00 FF FF FF 00 00 00 00 FF 00 
00 00 FF 00 00 FF 00 00 00 FF 00 FF 00 00 00 FF 
FF FF 00 FF FF FF 00 FF 00 00 00 FF 00 00 00 00 
00 FF FF 00 FF FF FF FF 00 00 00 FF 00 FF 00 00 
00 FF FF FF 00 00 FF FF FF 00 00 FF 00 FF 00 00 
00 00 00 00 00 00 FF FF 00 00 00 00 00 FF FF 00 
FF FF 00 00 FF 00 FF 00 00 00 00 FF 00 00 00 FF 
00 00 FF 00 00 00 00 FF FF FF 00 FF 00 00 00 00 
FF FF 00 00 FF 00 FF FF 00 00 00 00 00 FF 00 00 
00 00 FF 00 00 00 00 00 00 00 00 00 FF 00 00 00 
00 00 FF 00 00 FF 00 00 FF 00 00 00 FF 00 00 FF 
00 FF FF FF FF 00 00 00 00 00 00 00 FF 00 00 FF 
FF 00 FF 00 FF 00 00 FF 00 00 FF 00 FF FF 00 00 
00 00 00 00 00 00 00 00 FF FF 00 00 00 FF 00 00 
FF 00 00 FF 00 00 00 FF 00 00 00 00 00 00 00 FF 
00 00 00 00 FF 00 00 00 00 FF FF FF 00 FF 00 00 
FF FF 00 00 00 00 00 FF 00 00 00 00 FF FF 00 FF 
00 00 00 FF FF FF FF 00 00 00 FF 00 00 00 00 00 
00 00 FF 00 00 FF FF 00 00 FF FF 00 00 FF 00 00 
FF 00 00 00 FF FF FF 00 00 00 00 00 FF 00 FF 00 
00 FF 00 00 FF 00 00 00 FF FF 00 00 00 00 00 00 
00 00 00 00 00 00 FF FF FF 00 00 FF 00 00 00 00 
FF 00 FF 00 00 FF 00 00 00 00 FF FF FF FF 00 00 
00 FF 00 00 00 00 00 FF 00 00 FF FF 00 00 00 00 
00 FF 00 FF 00 00 00 00 00 FF FF 00 FF FF 00 00 
00 00 FF 00 00 FF 00 00 00 FF 00 FF 00 00 FF 00 
00 00 00 00 FF 00 00 00 00 00 00 00 FF 00 FF 00 
00 00 00 00 00 00 00 00 FF 00 00 00 00 00 00 FF 
FF 00 00 FF FF 00 FF 00 00 00 00 00 FF 00 00 00 
00 00 FF 00 00 FF 00 00 00 00 00 FF FF 00 00 00 
FF 00 FF 00 FF 00 00 00 00 00 00 FF 00 00 00 00 
00 FF FF 00 FF FF 00 FF 00 FF 00 FF 00 00 FF FF 
FF 00 00 00 FF FF FF FF 00 FF FF 00 00 FF FF 00 
00 00 00 00 00 FF 00 00 00 00 FF 00 FF 00 00 00 
FF FF 00 FF 00 00 FF FF 00 00 FF 00 00 00 00 FF 
FF 00 00 FF 00 FF 00 00 00 00 FF FF 00 FF FF FF 
00 00 FF FF FF 00 FF 00 00 00 00 00 00 00 00 00 
FF 00 FF 00 00 FF 00 00 00 00 FF 00 00 FF 00 FF 
00 00 00 00 00 FF 00 FF 00 FF 00 FF 00 00 FF 00 
00 FF 00 00 FF FF FF 00 FF 00 00 FF 00 FF 00 00 
00 FF 00 FF FF FF FF FF 00 00 FF 00 FF FF 00 00 
00 00 00 00 00 FF 00 FF 00 FF 00 00 00 FF FF 00 
00 00 00 00 FF 00 FF FF FF FF 00 00 00 FF 00 FF 
FF 00 FF FF 00 00 FF 00 00 00 00 00 00 FF FF 00 
00 00 00 00 FF 00 00 00 00 00 FF 00 00 00 00 00 
00 00 00 00 00 00 00 FF FF 00 00 FF 00 00 00 FF 
FF 00 00 00 FF 00 FF FF FF FF 00 FF FF 00 FF FF 
FF 00 FF 00 00 00 FF 00 FF FF FF 00 00 FF FF 00 
00 00 00 00 00 00 00 00 00 00 FF 00 00 00 00 00 
FF 00 FF 00 00 FF 00 00 00 00 FF FF 00 00 FF 00 
00 00 00 00 00 00 FF 00 00 00 FF FF 00 00 00 00 
FF 00 00 00 00 00 00 00 FF 00 00 FF 00 00 00 FF 
00 FF 00 00 00 00 00 FF 00 00 00 00 00 FF FF 00 
00 00 00 00 00 00 FF 00 00 FF 00 FF 00 00 FF 00 
FF 00 00 00 FF 00 00 FF FF 00 00 00 FF 00 00 00 
FF FF 00 00 00 00 00 00 00 00 00 FF FF FF FF FF 
00 FF 00 FF 00 FF 00 00 00 00 FF FF 00 00 FF 00 
FF 00 FF FF FF 00 00 00 00 00 FF 00 00 00 FF FF 
00 00 00 00 00 FF 00 FF 00 00 FF 00 00 00 00 FF 
00 FF FF 00 FF 00 00 00 00 00 00 00 FF 00 FF 00 
00 00 00 00 FF FF 00 00 00 FF FF 00 00 FF 00 00 
00 00 00 00 00 00 00 FF FF 00 FF 00 00 00 00 00 
00 FF FF 00 FF FF 00 FF 00 FF 00 FF 00 00 00 FF 
FF 00 00 00 00 FF FF 00 FF 00 00 00 FF 00 FF 00 
FF 00 00 FF FF 00 00 00 00 FF FF 00 00 00 00 00 
00 00 00 FF FF FF 00 FF 00 FF 00 00 00 00 00 00 
00 00 00 00 00 00 00 FF FF 00 FF FF 00 FF 00 00 
00 00 00 00 00 00 00 00 FF 00 00 00 00 FF FF 00 
00 FF FF 00 FF 00 FF FF 00 00 FF 00 FF 00 FF 00 
00 FF FF 00 00 00 00 00 00 00 00 00 00 00 00 00 
FF 00 00 FF FF 00 00 FF 00 00 00 00 FF 00 00 00 
00 00 FF 00 00 00 00 00 00 00 FF 00 00 FF 00 FF 
00 FF 00 FF FF FF 00 00 FF FF 00 00 00 FF 00 00 
00 00 00 00 00 00 FF 00 FF 00 FF FF 00 00 00 00 
00 00 FF FF FF 00 FF 00 00 00 00 00 00 00 FF FF 
00 FF 00 FF 00 00 00 FF FF FF 00 FF 00 FF FF 00 
00 FF FF FF 00 00 00 FF 00 00 00 FF 00 00 FF FF 
FF 00 00 00 00 00 FF 00 00 00 00 00 00 FF 00 00 
FF 00 00 00 FF 00 00 00 FF FF 00 00 FF 00 00 00 
00 FF FF FF 00 00 00 00 FF FF FF FF FF 00 00 00 
00 00 FF 00 FF FF 00 FF 00 00 00 00 FF FF FF 00 
FF FF FF FF 00 FF FF FF 00 FF FF FF FF FF 00 00 
00 00 FF FF FF FF FF 00 FF 00 00 FF 00 00 FF FF 
FF 00 00 FF 00 00 00 FF 00 00 FF 00 00 FF FF 00 
FF 00 00 00 00 00 FF FF 00 00 00 FF 00 00 00 00 
00 FF FF 00 00 00 FF 00 00 00 00 00 00 00 FF 00 
00 00 00 00 FF 00 FF 00 00 00 FF 00 00 00 FF 00 
FF 00 FF 00 FF FF FF 00 00 00 FF FF 00 00 00 00 
00 00 00 00 FF 00 00 00 00 00 00 FF 00 FF 00 00 
00 00 00 00 FF 00 00 FF 00 00 00 FF FF FF 00 00 
00 00 00 00 00 FF 00 00 FF 00 00 00 00 00 00 00 
00 00 00 00 FF 00 00 00 FF 00 00 00 00 00 00 FF 
00 FF 00 FF FF FF FF 00 00 00 00 00 FF 00 00 00 
FF 00 00 FF 00 00 00 00 FF FF 00 00 00 FF 00 00 
00 FF 00 00 FF 00 00 00 00 FF 00 FF 00 00 FF 00 
00 00 00 00 FF FF FF 00 FF 00 FF FF FF 00 00 00 
FF FF FF FF 00 00 00 00 FF FF 00 00 FF 00 00 FF 
00 FF 00 00 00 00 00 00 00 00 00 00 FF 00 00 00 
00 FF FF FF 00 00 00 00 00 00 00 FF FF 00 FF 00 
00 00 00 FF 00 FF 00 FF 00 00 00 00 FF 00 00 00 
00 00 FF FF 00 00 00 00 00 00 00 FF 00 FF 00 FF 
FF 00 00 00 00 FF 00 FF FF FF FF FF FF FF FF FF 
00 FF FF 00 00 00 FF 00 00 FF FF 00 00 FF FF 00 
00 00 00 FF FF FF 00 FF FF 00 00 00 FF 00 00 00 
00 00 00 00 00 00 00 00 FF 00 FF 00 00 FF FF FF 
FF FF 00 FF FF 00 00 00 00 00 FF FF 00 00 FF 00 
FF 00 00 00 00 FF 00 00 FF 00 00 00 FF FF 00 FF 
00 FF 00 FF FF 00 00 FF 00 00 00 00 FF 00 00 FF 
00 FF FF FF 00 00 00 00 00 FF 00 00 00 00 00 00 
00 00 FF 00 FF 00 FF FF FF 00 00 00 FF FF 00 00 
00 00 00 00 00 00 FF 00 FF 00 00 00 00 FF FF FF 
00 FF 00 00 FF FF 00 00 00 FF 00 00 00 FF FF 00 
FF 00 00 00 00 FF FF FF FF 00 00 00 FF 00 FF 00 
00 00 00 00 FF FF FF FF FF 00 00 FF FF FF FF FF 
00 FF 00 00 FF 00 00 00 00 FF 00 FF FF 00 00 00 
00 00 FF FF 00 FF FF 00 00 00 00 FF FF 00 FF 00 
00 00 00 FF 00 00 00 00 00 00 00 00 FF 00 00 00 
00 00 00 00 00 FF FF 00 00 00 00 00 00 00 00 00 
FF 00 00 FF 00 00 00 00 FF FF FF FF 00 FF 00 00 
00 00 00 FF FF 00 00 00 00 00 00 00 FF FF 00 00 
00 FF 00 FF 00 00 00 00 00 FF 00 FF 00 00 FF 00 
00 00 00 FF 00 00 00 FF FF FF 00 FF FF FF FF FF 
00 FF 00 FF 00 00 FF 00 00 FF FF FF FF 00 FF FF 
00 00 FF FF 00 00 FF 00 00 FF FF FF FF FF FF FF 
00 00 00 FF 00 00 00 00 FF 00 00 00 FF 00 00 00 
FF FF 00 00 00 00 00 00 FF 00 00 00 FF 00 00 00 
00 FF 00 FF FF 00 00 FF 00 00 00 FF 00 00 00 FF 
00 00 FF 00 FF 00 00 FF 00 00 00 00 FF 00 FF 00 
00 00 00 00 00 00 FF 00 00 FF 00 FF 00 FF FF 00 
00 FF 00 00 00 00 FF FF 00 FF 00 00 00 FF 00 00 
FF 00 00 00 00 00 FF 00 00 00 00 00 00 00 00 00 
00 00 00 00 00 00 FF FF 00 FF 00 00 FF FF FF FF 
FF 00 00 FF FF FF 00 FF 00 FF FF 00 FF 00 00 FF 
FF FF FF 00 00 00 00 00 00 FF 00 00 00 00 FF 00 
00 00 00 FF 00 00 FF 00 FF 00 00 FF 00 FF 00 00 
FF 00 00 00 00 00 00 00 FF 00 00 00 FF 00 00 FF 
00 00 FF 00 FF 00 FF FF FF 00 00 00 00 00 00 00 
00 FF 00 00 00 FF 00 00 00 00 00 FF 00 00 FF FF 
FF FF 00 FF 00 00 00 00 FF FF 00 FF 00 FF 00 00 
00 00 FF FF 00 FF 00 00 00 FF 00 00 00 00 00 00 
FF 00 FF 00 FF FF FF FF FF FF 00 FF 00 00 00 FF 
FF FF 00 FF FF FF 00 00 00 00 FF 00 00 FF 00 00 
FF FF 00 00 FF FF 00 00 00 00 FF 00 00 00 FF FF 
00 00 FF FF 00 FF 00 00 00 00 00 FF 00 FF FF FF 
FF 00 00 00 FF FF 00 00 00 00 00 00 00 00 00 FF 
00 00 00 00 FF FF 00 00 00 00 FF 00 FF FF FF 00 
00 00 FF FF 00 00 00 00 00 FF 00 FF FF FF 00 00 
FF FF 00 FF 00 FF 00 FF FF FF FF FF FF 00 00 FF 
00 00 00 00 00 FF 00 00 00 00 FF FF 00 00 FF 00 
FF 00 00 00 FF 00 00 FF 00 FF 00 FF 00 FF 00 00 
FF FF FF 00 00 FF 00 FF 00 00 00 00 00 00 00 00 
00 00 FF FF 00 00 00 00 00 00 00 00 00 00 00 00 
00 FF 00 FF 00 FF 00 FF 00 00 00 00 00 00 FF FF 
FF 00 00 00 00 00 00 00 00 00 FF 00 FF FF FF 00 
00 00 FF FF 00 00 00 FF 00 00 00 FF FF 00 00 00 
FF 00 FF 00 00 00 00 00 00 FF 00 00 00 00 00 00 
00 00 FF FF 00 00 00 00 FF 00 00 00 00 FF 00 00 
00 00 00 00 FF FF 00 00 FF 00 00 00 00 00 00 FF 
FF 00 FF FF 00 00 00 00 00 00 00 00 00 00 00 00 
00 00 FF 00 00 00 00 00 FF 00 00 00 00 FF 00 00 
FF 00 FF 00 FF 00 00 00 FF FF 00 00 00 00 00 00 
00 00 00 00 FF 00 FF 00 00 00 FF 00 00 00 00 00 
00 00 00 00 00 00 FF 00 00 00 00 00 00 00 00 00 
00 00 FF 00 00 00 00 00 00 FF 00 00 00 00 FF FF 
00 FF 00 FF 00 00 FF 00 00 FF FF FF FF 00 FF 00 
FF 00 FF 00 FF FF 00 00 00 FF 00 FF FF 00 00 00 
00 00 00 00 FF 00 FF 00 FF 00 00 00 00 FF FF 00 
00 00 00 00 00 FF 00 00 00 FF 00 00 00 00 00 00 
00 FF FF FF FF 00 00 00 FF 00 00 00 00 FF FF 00 
00 00 FF 00 00 00 00 00 00 00 FF FF 00 00 00 00 
00 00 FF 00 00 00 00 00 00 00 FF 00 00 00 FF FF 
00 00 00 FF 00 00 00 00 00 00 FF FF 00 00 00 00 
00 00 FF 00 FF 00 FF FF 00 00 00 FF 00 FF 00 00 
00 00 00 FF 00 00 FF FF 00 FF 00 00 00 FF FF 00 
00 00 FF FF 00 00 00 FF 00 00 FF FF 00 00 00 00 
00 00 FF FF FF FF 00 00 00 FF 00 00 FF 00 00 FF 
FF FF 00 00 00 00 00 00 00 FF 00 00 00 00 FF 00 
FF 00 00 00 00 00 00 00 00 00 00 00 FF FF FF 00 
FF 00 FF FF 00 FF FF 00 FF 00 00 00 00 00 FF 00 
FF 00 00 FF 00 00 00 FF 00 00 00 FF 00 00 00 FF 
00 FF 00 FF FF 00 00 00 00 00 FF FF FF FF FF 00 
FF 00 00 00 00 00 00 00 00 00 00 00 00 FF 00 FF 
00 FF 00 00 00 FF FF 00 FF 00 00 FF 00 00 FF 00 
00 FF 00 00 00 FF 00 00 FF 00 00 00 00 00 00 FF 
FF 00 00 00 00 00 00 00 00 FF 00 00 00 00 00 00 
00 00 00 00 00 FF FF 00 00 FF 00 00 FF 00 00 FF 
00 00 00 00 FF FF 00 FF 00 FF FF 00 00 00 FF FF 
00 FF 00 00 FF FF 00 00 00 00 00 00 00 00 FF FF 
00 00 00 00 00 FF FF FF FF FF FF 00 00 00 FF FF 
00 00 00 FF 00 00 FF FF 00 FF FF FF 00 00 FF 00 
FF 00 00 00 FF 00 00 FF FF 00 00 00 FF 00 00 00 
FF FF FF FF FF 00 00 00 00 00 00 00 FF 00 FF 00 
FF 00 00 00 00 00 00 00 00 00 00 FF 00 00 00 00 
FF FF 00 FF 00 00 00 00 00 FF FF 00 00 00 00 FF 
00 FF 00 FF 00 00 FF 00 00 FF 00 00 00 00 00 FF 
00 00 FF 00 00 FF FF 00 FF 00 00 FF FF 00 00 FF 
FF FF FF 00 FF 00 FF 00 00 00 00 00 00 00 00 FF 
00 00 00 00 00 FF 00 FF 00 FF 00 FF FF FF FF FF 
00 00 FF 00 00 FF 00 00 00 00 FF 00 FF 00 FF 00 
00 00 00 00 FF 00 00 FF 00 00 FF 00 00 00 00 FF 
FF 00 FF 00 00 FF FF FF 00 FF FF 00 00 00 00 00 
00 00 00 00 00 00 FF 00 00 00 00 FF 00 FF 00 00 
00 00 00 00 00 FF FF 00 00 00 00 00 FF 00 00 00 
00 FF 00 00 FF FF 00 00 00 FF FF 00 00 00 00 FF 
00 00 00 00 FF 00 00 00 FF 00 FF 00 00 00 00 FF 
00 FF 00 FF 00 FF FF FF FF FF FF 00 FF 00 FF 00 
00 FF 00 FF 00 FF 00 00 FF 00 00 00 00 FF 00 00 
00 00 00 FF 00 FF 00 FF 00 00 FF 00 00 FF 00 00 
00 00 00 00 00 FF 00 00 00 00 00 00 00 00 FF 00 
00 FF 00 FF 00 00 00 FF 00 00 FF FF 00 00 00 FF 
00 FF 00 00 00 00 FF 00 00 00 FF FF 00 00 00 00 
00 00 FF 00 FF 00 FF FF 00 FF FF FF 00 FF 00 00 
00 FF FF FF 00 FF 00 00 00 00 FF FF 00 FF FF FF 
00 00 00 FF 00 00 FF FF FF 00 00 00 00 00 00 00 
FF 00 00 00 FF 00 00 00 00 FF 00 00 FF 00 FF 00 
FF 00 00 00 00 FF 00 00 FF FF 00 00 FF 00 00 00 
FF FF FF FF 00 FF 00 00 FF 00 00 00 00 00 FF 00 
00 00 00 FF 00 00 00 00 FF 00 FF FF FF 00 FF 00 
00 00 FF FF 00 00 00 FF 00 00 00 FF FF 00 00 00 
FF 00 00 FF FF 00 FF FF FF 00 00 00 00 00 FF 00 
00 FF FF 00 00 FF 00 FF 00 00 00 FF 00 FF 00 00 
FF 00 FF FF 00 00 00 00 FF FF 00 00 00 FF 00 00 
00 00 00 FF FF 00 00 FF 00 00 FF FF FF 00 FF FF 
00 00 00 00 00 00 00 FF FF 00 FF FF 00 00 00 00 
00 00 00 FF 00 00 00 FF FF 00 FF 00 00 00 00 00 
00 FF 00 FF FF 00 00 00 00 00 00 00 00 00 FF 00 
00 FF 00 00 00 FF 00 00 00 FF 00 FF 00 FF 00 00 
00 00 00 00 FF FF FF 00 00 FF 00 00 00 FF FF 00 
00 00 00 FF 00 00 FF 00 00 00 00 FF 00 00 00 00 
00 00 FF FF 00 00 00 00 00 00 FF 00 00 00 FF 00 
FF 00 00 00 00 00 00 FF 00 00 00 00 FF 00 00 00 
00 00 FF FF FF 00 00 FF 00 00 00 00 00 00 FF 00 
FF FF 00 00 FF 00 FF 00 FF 00 00 00 00 00 00 FF 
FF 00 00 00 00 FF 00 FF FF 00 00 00 00 FF 00 00 
00 FF 00 00 00 FF 00 00 FF 00 00 00 00 FF FF 00 
FF 00 00 00 00 FF FF 00 00 00 00 00 00 FF 00 00 
00 FF 00 FF 00 00 00 00 00 00 00 00 00 00 00 FF 
00 FF 00 00 FF 00 00 FF FF 00 00 00 00 FF 00 FF 
00 00 FF FF 00 FF 00 00 00 FF 00 00 00 00 00 00 
00 00 00 FF 00 00 FF FF 00 FF 00 00 00 00 00 FF 
00 00 FF 00 00 FF 00 00 FF 00 00 00 00 FF 00 FF 
00 00 00 FF 00 00 FF 00 00 00 00 00 FF FF FF 00 
00 00 FF FF 00 00 00 00 00 00 FF FF 00 00 00 00 
FF 00 00 00 00 00 00 00 00 00 00 00 FF FF 00 00 
00 00 00 00 00 00 FF 00 00 FF FF 00 FF FF FF 00 
00 00 00 FF FF 00 00 00 FF FF 00 00 00 FF 00 FF 
00 00 00 00 00 00 00 00 00 00 FF 00 00 00 00 00 
FF 00 00 00 00 00 FF FF 00 FF 00 FF FF 00 FF FF 
FF 00 FF 00 00 00 00 FF 00 00 FF 00 00 00 FF FF 
00 00 00 00 00 FF 00 00 00 FF 00 00 00 00 00 FF 
00 00 00 00 00 00 FF 00 00 FF FF 00 00 00 00 00 
FF 00 FF FF 00 00 00 FF 00 00 00 FF 00 00 FF FF 
00 FF 00 FF FF 00 00 00 FF FF 00 00 00 00 00 00 
00 FF 00 FF 00 00 00 00 00 FF 00 FF FF FF 00 00 
00 00 00 00 FF 00 FF 00 00 00 FF FF FF FF 00 00 
00 00 FF 00 00 00 00 FF FF FF FF FF 00 00 00 00 
FF 00 00 00 00 00 00 FF 00 00 00 FF 00 FF 00 FF 
FF 00 FF 00 00 00 00 00 00 00 00 00 00 00 FF FF 
00 00 00 00 00 00 FF FF FF 00 FF FF 00 FF 00 00 
FF FF FF 00 00 00 00 00 00 00 00 00 00 00 00 FF 
00 00 FF FF 00 FF 00 00 00 00 00 00 00 00 00 00 
00 00 00 00 00 00 FF 00 00 00 00 FF 00 00 00 00 
FF 00 00 00 00 FF FF 00 00 FF 00 00 00 FF 00 00 
00 00 FF FF 00 00 00 FF FF FF 00 FF 00 FF 00 00 
00 FF 00 00 00 00 00 FF 00 00 00 00 00 00 FF 00 
00 FF 00 FF 00 00 00 FF FF FF FF 00 FF 00 FF 00 
FF 00 00 00 00 FF 00 FF FF 00 00 FF 00 FF 00 00 
00 FF 00 00 FF 00 00 FF 00 00 00 00 00 00 00 00 
FF FF FF 00 00 00 00 FF 00 00 FF 00 FF 00 00 00 
00 00 00 00 00 FF FF FF 00 00 FF 00 00 00 00 FF 
00 FF 00 00 FF 00 00 00 00 00 00 00 00 FF 00 FF 
00 00 FF 00 00 FF 00 FF FF 00 00 FF 00 00 FF 00 
00 FF 00 00 00 00 00 FF FF 00 FF 00 00 FF FF FF 
00 FF FF 00 00 00 FF 00 00 00 FF 00 FF FF FF FF 
00 FF 00 FF 00 00 00 00 00 00 00 FF 00 00 00 00 
FF 00 00 00 00 00 00 FF 00 00 00 FF FF 00 00 00 
00 00 00 00 FF 00 FF 00 00 00 00 00 00 FF FF 00 
00 00 00 00 FF FF FF 00 00 FF FF 00 00 00 FF 00 
FF FF FF 00 00 00 00 00 00 00 FF FF FF 00 FF FF 
00 FF FF 00 FF 00 00 00 00 00 00 FF 00 FF FF 00 
00 00 00 00 00 FF FF FF FF 00 00 FF FF 00 00 00 
00 00 00 FF 00 FF 00 00 00 00 00 00 00 00 00 00 
00 00 00 00 00 00 00 00 00 00 00 00 00 FF 00 00 
FF FF 00 00 FF 00 00 FF 00 00 FF 00 00 FF 00 00 
00 00 FF 00 00 00 00 00 00 00 00 00 FF FF 00 00 
FF FF 00 FF FF 00 00 00 FF 00 FF 00 FF 00 FF FF 
00 00 00 FF 00 FF FF FF FF FF 00 00 FF 00 FF 00 
FF 00 00 FF FF 00 00 FF 00 FF FF FF FF 00 00 00 
00 FF 00 00 FF 00 FF 00 00 00 FF 00 00 FF FF 00 
00 00 FF 00 FF FF 00 00 00 00 00 00 FF 00 FF 00 
00 FF 00 00 00 FF FF FF 00 FF 00 00 FF 00 00 00 
00 00 00 00 00 00 FF 00 00 00 00 00 FF FF 00 FF 
00 FF 00 FF 00 00 00 00 00 00 00 00 00 FF 00 00 
00 FF 00 00 00 00 00 00 00 00 FF FF FF FF 00 00 
FF FF FF 00 00 00 00 00 FF FF 00 FF 00 00 00 00 
00 00 00 FF FF 00 00 00 00 00 00 00 FF 00 00 00 
00 00 00 00 00 00 FF 00 FF 00 FF 00 00 FF 00 00 
00 00 00 00 FF 00 FF 00 00 00 00 00 00 00 00 FF 
00 FF 00 FF FF FF FF FF 00 00 00 00 00 00 00 00 
00 00 00 FF 00 00 FF FF 00 00 FF 00 00 00 FF FF 
00 FF FF FF 00 00 00 00 00 FF FF 00 FF 00 00 00 
00 FF 00 FF 00 FF 00 FF 00 FF FF 00 00 00 FF 00 
FF 00 FF 00 FF 00 FF 00 00 00 00 00 FF FF 00 FF 
00 00 00 FF 00 FF FF 00 00 00 00 FF FF 00 00 FF 
FF 00 00 00 00 FF 00 00 00 00 00 00 00 FF FF FF 
FF 00 00 00 FF 00 FF 00 FF 00 FF 00 00 00 00 00 
FF 00 00 00 00 00 00 FF FF FF FF FF FF FF 00 00 
FF FF FF 00 FF 00 00 FF FF 00 FF 00 00 00 00 00 
00 FF FF 00 00 00 00 00 00 FF 00 00 00 FF 00 00 
00 00 00 00 00 00 00 00 00 FF 00 00 00 00 00 00 
00 00 00 FF 00 00 00 00 00 FF 00 FF FF FF 00 00 
FF FF 00 00 FF 00 FF 00 00 00 00 00 00 FF 00 00 
00 00 00 00 00 FF 00 FF FF 00 00 00 FF 00 00 FF 
FF FF FF 00 00 00 FF FF 00 00 00 FF 00 FF 00 00 
00 FF 00 00 00 00 00 00 00 FF 00 00 00 00 FF 00 
00 FF 00 00 00 00 00 00 FF 00 00 00 FF 00 00 00 
00 00 00 00 00 FF FF 00 00 00 FF 00 00 00 FF 00 
00 00 00 00 FF 00 00 00 00 00 00 00 00 FF 00 00 
00 FF 00 00 00 FF 00 00 00 00 FF 00 FF FF 00 FF 
00 FF 00 00 FF 00 00 00 00 00 00 00 FF FF 00 00 
00 00 00 FF 00 00 FF 00 FF 00 00 00 00 FF 00 00 
00 00 00 00 00 FF 00 00 FF 00 00 FF 00 00 00 00 
FF 00 00 FF 00 FF 00 FF 00 FF 00 00 00 00 FF FF 
00 00 00 FF 00 FF 00 FF 00 00 00 00 00 FF FF FF 
00 00 FF 00 FF FF 00 00 00 00 00 FF FF 00 00 00 
00 FF FF 00 00 FF 00 FF 00 FF 00 00 00 00 00 00 
00 00 00 FF 00 FF 00 00 00 00 00 00 00 FF 00 FF 
00 FF 00 00 FF 00 00 00 FF FF FF 00 FF 00 00 00 
FF 00 00 00 00 00 FF 00 00 FF 00 00 FF 00 FF 00 
00 00 FF 00 00 00 FF 00 FF 00 00 00 FF 00 00 00 
FF 00 FF 00 00 00 00 00 00 FF 00 00 00 FF 00 00 
FF 00 00 00 00 00 00 00 00 00 00 00 00 00 00 FF 
00 FF FF 00 FF 00 00 FF 00 FF 00 FF FF 00 FF FF 
FF 00 00 00 00 FF FF FF 00 FF 00 00 00 FF 00 00 
00 00 00 00 00 00 FF FF 00 00 00 FF 00 00 00 00 
00 00 FF 00 FF FF 00 00 00 FF 00 00 00 00 FF FF 
00 FF 00 00 FF 00 00 FF FF 00 FF 00 00 00 00 00 
00 00 FF 00 00 00 00 00 FF 00 00 00 FF 00 FF 00 
00 00 FF 00 FF 00 00 00 00 00 FF FF 00 00 00 FF 
00 FF FF 00 FF 00 00 00 FF FF 00 00 00 00 FF FF 
FF 00 00 FF FF 00 00 00 00 FF 00 00 00 00 00 00 
FF 00 00 00 00 FF FF 00 FF 00 FF 00 00 00 00 FF 
FF 00 00 00 FF 00 FF 00 00 00 00 00 00 FF FF FF 
FF FF 00 00 00 00 00 00 FF 00 00 00 00 00 00 FF 
FF 00 00 FF 00 00 00 00 00 00 00 00 FF 00 00 FF 
00 FF 00 00 00 00 FF 00 00 00 00 FF 00 00 00 00 
00 FF FF 00 00 FF FF 00 FF 00 FF 00 00 00 00 FF 
FF 00 FF 00 00 FF 00 FF FF 00 00 00 00 00 FF FF 
FF 00 FF 00 00 FF 00 00 FF FF 00 FF FF FF FF FF 
00 00 FF FF FF FF 00 FF 00 00 00 00 00 FF 00 FF 
00 FF 00 00 00 00 00 00 00 00 00 00 00 00 FF 00 
00 FF 00 00 00 FF FF 00 00 FF FF 00 FF FF FF FF 
FF 00 00 00 00 00 00 00 FF FF 00 00 00 00 00 FF 
00 00 00 FF 00 FF 00 00 FF 00 00 FF FF 00 00 00 
FF 00 00 FF 00 00 FF 00 FF 00 00 00 FF 00 00 00 
00 00 FF FF 00 FF 00 FF FF FF 00 00 00 00 00 00 
FF FF FF FF FF FF 00 00 FF 00 00 FF 00 00 FF FF 
00 FF 00 00 FF 00 00 00 00 00 FF 00 00 00 00 00 
00 00 00 00 00 FF 00 00 FF FF 00 00 00 FF FF 00 
FF 00 FF 00 00 00 00 FF 00 00 FF FF FF 00 00 00 
00 FF 00 00 00 FF FF FF FF 00 00 00 00 FF 00 00 
FF 00 00 00 FF 00 00 00 FF FF 00 00 FF FF 00 00 
00 FF 00 00 FF 00 00 00 FF 00 00 FF FF FF 00 FF 
FF 00 00 00 00 00 00 00 00 00 00 00 00 00 FF FF 
00 00 FF 00 FF FF 00 FF FF FF FF FF 00 FF FF 00 
FF 00 00 FF 00 00 FF FF FF 00 00 00 FF 00 FF 00 
00 00 00 00 00 FF 00 00 00 FF FF 00 FF 00 FF FF 
00 00 00 00 00 00 00 00 00 FF 00 00 00 FF FF FF 
00 FF 00 00 00 00 00 FF 00 00 00 00 00 FF 00 00 
FF 00 00 00 00 FF 00 00 00 00 FF FF 00 00 00 00 
00 00 FF 00 FF 00 00 FF FF 00 00 00 FF FF FF FF 
00 00 00 FF 00 FF 00 00 FF 00 FF FF 00 00 FF 00 
00 FF 00 00 00 00 00 00 FF 00 FF FF FF 00 00 00 
00 00 00 00 00 00 00 FF FF 00 00 00 00 00 FF 00 
00 FF FF 00 00 00 00 FF 00 FF 00 FF 00 00 00 00 
00 00 00 00 00 00 00 00 00 00 00 00 00 FF 00 00 
FF 00 FF 00 00 00 00 00 00 00 00 FF FF 00 FF FF 
FF FF 00 FF FF 00 FF 00 FF 00 00 00 00 00 00 FF 
FF 00 FF 00 00 FF 00 00 00 FF FF FF 00 FF FF 00 
00 FF 00 00 FF 00 00 FF 00 00 FF FF 00 00 FF FF 
FF FF FF 00 00 00 00 00 FF 00 00 00 FF 00 FF 00 
FF 00 00 FF 00 00 FF 00 FF FF 00 00 00 FF 00 00 
00 00 FF FF 00 00 00 00 00 FF 00 FF 00 FF 00 00 
FF FF 00 00 FF FF 00 00 00 00 FF 00 FF 00 00 00 
00 FF 00 FF 00 00 00 00 00 00 00 FF 00 00 FF FF 
00 FF FF FF FF 00 FF FF 00 FF FF 00 FF FF FF 00 
FF FF FF FF 00 00 FF 00 00 00 FF 00 00 FF 00 00 
00 00 FF 00 00 FF FF 00 00 00 00 00 00 00 00 00 
00 00 00 00 FF 00 00 FF FF FF FF 00 FF FF 00 00 
FF 00 00 FF FF 00 00 00 FF FF 00 00 00 FF 00 00 
FF 00 FF 00 00 00 00 00 00 FF FF FF FF FF 00 00 
FF 00 00 00 FF 00 FF 00 FF 00 00 FF 00 FF 00 FF 
00 FF 00 FF 00 00 00 FF 00 FF FF FF 00 FF 00 00 
00 00 00 FF 00 00 00 00 00 00 00 00 00 00 00 FF 
FF 00 00 00 00 FF FF 00 00 00 00 FF 00 00 00 00 
00 FF 00 FF FF 00 00 00 00 00 00 00 00 00 00 00 
00 FF FF FF 00 00 00 00 00 00 00 00 00 00 00 FF 
00 FF FF 00 00 00 00 00 FF 00 00 FF FF 00 00 00 
00 00 FF 00 00 FF FF 00 FF 00 00 00 FF 00 FF 00 
FF 00 FF 00 00 00 00 00 FF 00 00 00 FF FF 00 FF 
00 00 00 00 FF FF 00 00 00 FF 00 00 00 00 00 00 
FF FF 00 FF 00 FF 00 00 00 00 00 00 00 FF FF FF 
00 FF FF FF FF 00 00 00 00 FF FF FF 00 FF FF FF 
FF 00 00 00 FF 00 00 00 00 FF 00 00 FF 00 FF 00 
00 FF 00 FF 00 00 00 00 FF FF 00 FF 00 00 00 00 
FF FF 00 00 00 00 FF FF 00 00 00 FF 00 00 00 00 
FF 00 00 FF 00 00 00 00 FF 00 00 00 00 00 00 00 
00 FF 00 00 00 FF 00 00 00 FF 00 FF FF 00 00 00 
00 00 00 00 00 00 00 00 FF 00 00 FF 00 FF 00 FF 
00 FF FF 00 FF 00 FF 00 00 FF 00 00 00 00 FF FF 
FF 00 FF 00 00 00 00 00 00 00 00 00 00 00 00 00 
00 FF FF FF 00 00 FF 00 00 00 00 00 00 FF 00 00 
00 FF 00 FF 00 00 00 FF 00 00 00 00 00 00 FF FF 
00 00 00 00 00 FF 00 00 00 00 FF 00 FF 00 00 00 
00 FF 00 00 00 FF FF 00 FF 00 FF 00 00 FF FF 00 
00 00 00 00 FF 00 00 00 FF 00 00 00 00 FF FF 00 
FF 00 00 FF 00 00 00 FF FF FF 00 00 FF 00 00 FF 
00 00 00 00 FF 00 00 00 00 FF FF FF FF FF 00 00 
00 00 00 FF 00 FF FF FF FF FF 00 00 FF 00 FF 00 
FF 00 00 FF FF FF 00 00 FF 00 FF 00 00 00 00 FF 
00 FF 00 00 00 FF 00 FF FF 00 FF 00 00 FF 00 00 
00 00 FF 00 FF FF 00 FF 00 00 00 00 00 00 FF 00 
00 FF 00 00 FF 00 00 00 FF 00 FF 00 00 00 00 00 
FF 00 00 FF FF 00 00 00 00 00 00 00 FF 00 00 FF 
00 FF FF 00 00 00 00 00 FF FF FF FF 00 00 FF 00 
00 00 FF FF FF 00 00 00 FF FF 00 FF 00 FF 00 00 
00 00 00 00 00 00 FF 00 FF 00 00 00 00 00 00 00 
00 FF 00 FF FF 00 FF FF 00 00 00 00 FF FF 00 00 
00 00 FF 00 00 FF FF 00 00 00 00 00 00 00 00 FF 
FF FF 00 FF 00 00 00 FF 00 FF 00 00 00 00 FF 00 
00 FF 00 00 00 FF FF FF FF FF 00 00 FF FF 00 FF 
00 00 00 FF FF FF FF 00 FF 00 FF 00 FF FF FF 00 
00 00 00 00 FF 00 00 FF 00 00 00 00 00 FF FF FF 
00 00 00 FF 00 00 FF FF FF FF 00 00 00 00 00 00 
00 00 FF FF FF 00 00 00 00 00 FF 00 00 00 FF 00 
FF 00 00 FF 00 00 FF FF 00 FF 00 00 FF 00 FF FF 
00 FF 00 00 00 00 FF 00 FF 00 FF FF FF 00 00 00 
FF 00 00 00 00 00 FF FF 00 FF FF FF 00 00 FF FF 
00 00 FF 00 FF 00 00 00 00 00 00 00 00 00 FF 00 
FF 00 00 00 00 00 FF 00 00 00 00 00 00 FF FF FF 
00 00 FF 00 FF FF 00 00 00 00 FF 00 FF 00 00 00 
FF 00 FF 00 00 00 00 00 00 FF 00 00 00 00 00 FF 
00 FF 00 00 00 00 FF 00 00 FF 00 00 00 FF FF 00 
00 00 00 00 00 FF FF FF 00 00 00 00 FF 00 FF 00 
00 00 FF FF FF FF 00 00 00 00 00 FF 00 00 FF 00 
00 00 00 FF FF 00 FF 00 00 FF 00 00 00 FF FF 00 
00 00 00 00 FF 00 00 00 00 FF FF 00 00 00 00 FF 
00 FF 00 00 00 FF 00 00 00 FF 00 FF 00 00 00 FF 
FF 00 00 FF 00 00 FF FF 00 00 FF 00 FF 00 00 00 
FF 00 FF 00 00 FF 00 00 FF 00 FF 00 00 00 00 FF 
00 00 00 00 FF 00 00 00 00 00 FF 00 00 FF 00 00 
00 FF FF FF FF 00 00 00 00 00 FF FF 00 00 FF FF 
00 00 FF 00 00 00 00 00 00 FF FF FF FF 00 FF 00 
00 FF 00 00 00 FF FF 00 00 00 00 00 00 FF 00 00 
FF 00 00 00 00 00 00 FF 00 00 00 00 00 00 00 00 
FF 00 00 00 00 00 00 FF FF 00 00 00 00 FF 00 FF 
FF 00 00 FF 00 00 FF 00 00 00 00 00 FF 00 FF 00 
FF 00 00 00 00 FF 00 FF 00 00 FF 00 00 00 00 00 
FF 00 00 00 00 FF FF 00 00 00 00 FF FF FF 00 FF 
FF FF 00 FF 00 00 FF FF 00 FF FF 00 FF 00 00 00 
00 00 00 00 00 00 FF 00 00 00 00 FF 00 00 00 00 
00 FF 00 FF 00 00 00 00 00 00 00 FF 00 FF 00 00 
00 00 00 00 00 00 FF FF 00 FF 00 00 00 00 FF FF 
00 00 FF 00 00 FF 00 00 00 00 00 00 00 FF FF 00 
00 00 FF FF 00 00 00 00 00 00 FF 00 00 FF 00 00 
FF 00 FF 00 00 00 00 FF 00 00 00 00 00 00 00 00 
00 00 00 00 FF FF FF FF 00 FF 00 00 00 FF FF 00 
00 00 00 00 00 00 00 00 00 00 00 00 FF 00 FF 00 
00 FF FF 00 FF FF 00 FF 00 FF 00 00 00 00 FF 00 
00 FF 00 FF 00 00 FF 00 FF 00 FF 00 00 00 00 00 
00 00 FF 00 00 00 FF FF 00 FF FF FF 00 00 00 FF 
00 00 00 00 FF 00 FF 00 00 00 00 00 00 FF 00 00 
FF 00 FF 00 FF 00 00 00 00 00 00 00 00 00 FF FF 
00 00 FF 00 00 00 00 00 00 00 00 00 00 00 FF 00 
FF 00 00 FF 00 FF FF 00 FF FF FF 00 00 00 FF 00 
00 00 00 00 FF 00 00 00 FF FF 00 00 00 FF FF 00 
FF 00 FF 00 00 00 00 FF 00 00 00 00 00 FF 00 00 
00 FF 00 FF FF 00 00 00 00 FF 00 00 00 FF 00 00 
00 FF 00 00 00 FF FF FF FF 00 00 00 00 FF 00 FF 
FF 00 FF 00 00 00 FF 00 00 FF 00 00 00 00 FF 00 
00 00 00 FF FF 00 00 00 00 FF FF 00 FF 00 FF 00 
FF FF FF 00 FF 00 00 00 00 FF 00 00 00 00 FF FF 
00 00 00 00 00 FF 00 00 FF 00 00 00 00 FF FF FF 
FF 00 FF 00 00 00 FF 00 FF FF 00 00 00 00 FF 00 
00 00 00 00 00 00 00 00 00 00 FF 00 FF 00 00 FF 
FF FF FF FF FF FF 00 FF FF 00 00 00 00 00 00 00 
00 00 00 00 00 00 FF 00 FF FF FF FF 00 00 00 FF 
00 00 00 FF FF 00 00 00 00 FF 00 00 00 FF FF 00 
00 00 FF FF FF 00 00 00 00 00 00 00 00 FF 00 00 
FF 00 FF 00 FF 00 FF FF FF 00 00 00 00 00 FF FF 
00 FF FF 00 00 00 FF 00 00 00 00 00 FF 00 FF 00 
00 FF FF 00 00 00 00 00 00 FF FF 00 00 FF 00 FF 
00 FF FF FF FF FF 00 00 FF FF FF 00 00 FF FF FF 
00 FF 00 00 00 00 FF 00 FF 00 FF 00 00 FF FF 00 
00 FF 00 00 FF 00 FF 00 00 00 FF FF FF FF FF 00 
00 00 00 00 00 00 00 FF FF 00 00 00 FF 00 00 00 
FF 00 FF 00 FF 00 FF 00 FF 00 FF 00 00 00 00 00 
00 00 00 FF 00 00 00 00 00 00 FF 00 00 00 00 FF 
FF 00 00 00 00 00 FF 00 00 FF FF 00 FF 00 00 00 
FF 00 00 00 00 00 FF FF 00 00 FF FF FF 00 00 00 
00 00 00 FF FF 00 00 00 00 00 FF 00 00 00 00 00 
FF 00 00 00 00 00 FF FF FF 00 00 00 FF FF 00 00 
00 FF 00 00 00 00 FF FF 00 00 00 00 00 00 00 FF 
00 00 00 FF 00 FF 00 FF 00 FF FF FF FF 00 00 00 
00 00 FF 00 00 00 00 00 FF 00 FF 00 00 FF FF FF 
00 00 00 00 00 FF FF 00 FF FF FF 00 FF 00 00 00 
00 00 FF 00 00 FF 00 00 00 FF 00 00 FF 00 FF 00 
00 00 00 00 00 FF FF 00 00 FF 00 00 00 FF FF FF 
00 00 00 FF FF 00 00 00 FF 00 00 00 00 00 FF 00 
FF FF FF 00 00 FF 00 FF 00 00 00 00 00 FF 00 FF 
00 00 00 FF 00 00 FF 00 FF 00 00 00 FF 00 00 00 
00 00 FF 00 FF FF 00 00 00 FF 00 00 00 00 FF 00 
FF 00 00 00 FF FF 00 00 00 FF 00 FF 00 FF 00 00 
00 FF FF 00 00 00 00 00 FF FF 00 00 00 FF 00 00 
00 FF 00 00 00 FF FF FF 00 00 00 00 00 00 00 00 
00 00 00 FF 00 00 00 00 00 00 00 00 00 FF FF 00 
00 00 00 FF 00 FF 00 00 00 FF 00 00 00 FF 00 00 
FF 00 FF 00 FF 00 00 00 00 00 00 00 00 00 00 00 
FF 00 00 00 00 00 00 FF FF 00 FF FF 00 00 00 00 
FF 00 00 00 00 00 00 FF 00 FF FF 00 00 00 FF 00 
00 00 FF 00 00 FF 00 00 00 00 00 FF 00 00 00 FF 
00 00 00 FF 00 FF 00 00 FF 00 00 FF FF 00 00 00 
00 00 00 00 00 00 00 FF 00 00 00 FF 00 00 FF FF 
00 FF FF 00 FF 00 00 00 00 00 00 00 00 00 00 00 
00 FF 00 FF FF 00 00 FF 00 00 FF FF FF 00 00 00 
FF 00 FF FF 00 FF 00 00 00 00 00 FF 00 FF FF FF 
00 00 00 FF 00 FF FF 00 00 00 00 00 00 00 FF 00 
FF FF FF FF 00 FF FF FF FF 00 FF 00 00 00 FF FF 
00 00 00 00 00 00 00 00 00 00 00 00 00 00 FF FF 
FF FF 00 00 00 00 00 00 00 00 00 00 00 00 00 00 
00 FF 00 FF 00 00 FF 00 00 00 00 00 00 00 FF 00 
00 00 00 FF 00 00 00 00 00 00 00 00 FF 00 FF FF 
00 FF 00 00 FF 00 00 00 00 FF 00 00 00 00 00 00 
00 00 FF 00 00 00 FF FF 00 00 00 00 00 00 00 00 
00 FF 00 00 FF 00 00 00 FF FF 00 00 00 00 00 00 
00 00 00 00 FF 00 FF 00 00 FF 00 FF 00 00 00 FF 
00 00 FF 00 FF FF 00 00 FF 00 FF FF FF 00 00 00 
FF FF 00 00 00 FF 00 00 FF FF 00 00 00 FF FF 00 
FF 00 00 FF 00 FF 00 00 00 00 00 FF FF FF FF 00 
00 00 FF 00 00 FF 00 00 FF 00 00 00 00 00 00 00 
00 00 00 00 FF 00 FF 00 00 00 00 FF 00 FF 00 00 
FF 00 00 00 00 FF 00 FF 00 00 FF 00 00 00 00 00 
00 FF 00 FF 00 00 FF 00 00 00 00 FF 00 00 FF 00 
00 00 00 00 00 00 00 00 00 FF 00 00 00 FF 00 00 
00 FF 00 FF 00 00 00 00 FF FF 00 00 00 FF FF FF 
00 00 FF 00 FF FF 00 00 00 FF 00 FF 00 00 00 00 
00 00 00 FF 00 FF 00 00 FF 00 00 00 FF FF 00 FF 
00 00 00 00 00 00 FF FF FF FF 00 00 00 FF 00 00 
FF 00 00 00 00 00 00 FF 00 00 00 00 00 FF 00 00 
00 FF 00 00 00 00 00 FF FF FF 00 FF 00 00 00 00 
FF 00 00 FF 00 FF FF 00 00 FF 00 00 00 00 00 00 
00 00 FF 00 00 FF 00 FF FF 00 00 FF FF 00 FF FF 
00 00 00 00 FF 00 FF 00 00 00 FF FF FF 00 00 00 
00 00 FF FF FF FF 00 00 00 FF 00 FF 00 00 00 00 
FF 00 FF FF FF FF FF 00 00 00 00 FF 00 FF 00 00 
FF 00 FF 00 00 FF 00 00 FF 00 00 00 00 FF 00 FF 
00 00 FF FF 00 00 00 00 00 FF 00 00 00 00 00 FF 
FF FF 00 00 00 FF FF 00 00 00 FF 00 00 FF 00 00 
FF FF 00 00 00 00 FF 00 FF FF FF FF 00 FF FF 00 
00 FF 00 FF 00 FF 00 FF FF FF 00 00 00 00 FF 00 
FF FF 00 00 FF 00 00 00 00 00 00 00 FF 00 00 00 
00 00 00 FF 00 00 00 00 00 FF FF FF FF 00 FF FF 
00 00 FF FF 00 00 00 00 FF FF FF 00 00 00 FF 00 
FF 00 00 00 00 FF FF 00 00 00 FF 00 00 FF FF FF 
FF 00 00 00 00 00 00 00 00 00 FF 00 00 00 00 00 
00 FF FF 00 00 00 00 00 FF FF 00 00 00 00 00 00 
00 FF 00 FF 00 00 FF 00 FF 00 00 00 FF 00 FF 00 
00 00 00 00 00 00 FF 00 00 00 FF 00 00 00 00 00 
00 FF 00 FF 00 00 00 00 00 FF 00 00 00 00 00 FF 
FF 00 00 00 FF 00 FF FF FF FF 00 00 00 FF 00 00 
FF FF 00 FF 00 00 FF FF FF 00 FF 00 00 00 00 FF 
00 FF 00 00 00 00 FF 00 00 00 00 00 00 FF 00 FF 
00 FF FF FF FF 00 FF FF 00 00 00 FF 00 00 00 FF 
00 FF FF 00 FF FF 00 FF 00 00 FF 00 FF 00 FF 00 
00 FF 00 00 00 FF 00 00 00 00 00 00 00 00 00 00 
00 00 00 00 FF FF FF FF FF 00 00 00 00 FF FF 00 
00 00 00 00 00 00 00 FF FF FF 00 FF 00 00 00 00 
00 00 00 00 00 FF FF FF 00 00 00 00 00 00 00 FF 
FF 00 FF 00 FF 00 FF FF 00 00 00 FF FF FF FF 00 
00 00 00 00 00 FF 00 00 00 00 00 00 00 FF 00 00 
00 00 00 00 00 00 FF 00 00 00 00 FF 00 FF 00 00 
FF 00 00 00 00 00 FF FF FF 00 FF 00 FF 00 00 00 
FF 00 00 00 00 00 00 00 00 00 00 00 00 00 FF 00 
00 00 FF 00 00 00 00 FF FF 00 00 00 00 00 00 00 
FF 00 00 FF 00 FF 00 FF 00 00 00 00 00 FF 00 FF 
FF FF 00 FF 00 FF FF FF FF FF 00 00 00 00 00 00 
FF FF FF 00 00 FF 00 FF FF 00 00 00 FF 00 00 00 
00 00 00 FF 00 00 00 FF FF 00 00 FF FF 00 00 00 
00 00 FF FF 00 00 00 00 00 00 FF 00 00 00 FF 00 
00 00 00 00 00 00 FF FF FF FF FF FF 00 00 00 00 
FF 00 00 00 00 00 FF FF FF 00 FF 00 FF 00 FF 00 
00 FF FF FF 00 FF 00 FF 00 00 00 00 FF FF 00 00 
FF 00 00 FF 00 FF 00 FF 00 00 00 00 00 00 00 00 
00 00 00 00 00 00 00 00 00 00 FF 00 00 FF FF FF 
00 00 FF 00 FF FF 00 FF 00 FF 00 FF 00 FF 00 00 
00 00 00 00 FF 00 00 FF FF 00 00 00 00 00 00 00 
00 FF 00 FF FF FF 00 FF 00 00 FF 00 00 00 FF 00 
FF FF 00 00 00 00 00 FF 00 FF 00 00 00 00 00 00 
FF 00 FF 00 00 00 00 FF 00 00 00 FF 00 FF 00 FF 
00 FF 00 00 FF 00 FF FF 00 00 FF 00 00 FF FF 00 
00 00 00 00 FF 00 00 00 FF 00 00 FF 00 00 FF 00 
FF 00 FF FF FF FF 00 00 FF 00 00 00 FF 00 00 00 
FF FF FF 00 00 00 00 00 00 00 00 FF 00 00 FF 00 
00 00 00 FF FF 00 FF FF 00 00 00 00 FF 00 FF 00 
FF 00 00 00 00 FF 00 FF 00 FF 00 FF FF 00 00 00 
00 00 FF 00 00 00 00 00 00 00 00 FF 00 FF 00 00 
00 00 FF 00 00 00 00 00 00 00 00 00 FF 00 FF 00 
00 00 00 00 00 00 00 FF 00 FF 00 00 00 00 FF 00 
00 FF 00 FF 00 00 00 00 00 00 FF 00 00 00 00 00 
00 00 FF FF FF 00 00 00 FF 00 00 00 00 FF 00 00 
FF FF 00 FF FF 00 FF FF 00 FF 00 00 00 00 00 00 
FF 00 FF 00 FF FF 00 00 00 00 FF FF 00 00 00 00 
FF FF FF FF 00 FF FF 00 00 FF 00 FF 00 00 00 FF 
00 FF FF 00 00 00 00 00 FF 00 00 00 00 FF 00 00 
FF 00 00 FF 00 FF 00 00 00 FF 00 FF 00 00 00 00 
FF 00 FF 00 00 00 FF 00 FF FF 00 00 FF 00 FF FF 
FF 00 FF FF 00 FF 00 FF FF 00 FF FF 00 FF 00 00 
00 FF 00 00 00 FF FF 00 00 FF 00 00 00 00 FF 00 
00 FF 00 00 00 FF 00 00 00 00 00 00 FF FF 00 00 
FF 00 FF FF 00 00 FF 00 00 00 FF 00 00 FF 00 FF 
00 FF FF FF FF 00 00 FF 00 00 FF FF 00 00 00 FF 
00 00 00 FF FF 00 00 00 00 00 00 00 00 00 00 00 
00 00 00 00 00 FF FF 00 00 FF 00 FF FF 00 00 FF 
00 00 00 FF FF FF FF FF 00 00 00 FF FF FF 00 00 
FF 00 00 00 00 00 FF 00 FF 00 00 00 00 FF 00 00 
FF 00 00 00 00 00 00 00 00 FF 00 00 FF 00 FF 00 
FF FF 00 FF 00 00 FF 00 00 00 00 00 00 FF 00 FF 
00 00 00 00 00 00 00 FF 00 FF 00 FF 00 00 FF FF 
00 00 00 00 00 00 00 FF FF FF 00 FF 00 00 FF 00 
FF FF 00 00 00 00 00 00 00 00 00 00 00 00 FF FF 
FF 00 FF 00 00 00 FF 00 FF FF 00 00 00 FF 00 00 
FF FF FF FF 00 00 00 FF 00 00 FF FF 00 00 00 00 
FF 00 00 00 00 FF 00 00 FF 00 FF FF 00 00 00 00 
00 00 00 00 FF 00 00 00 00 00 00 00 00 00 00 00 
00 FF FF FF FF 00 FF 00 FF FF 00 00 00 00 00 FF 
00 00 00 00 00 00 00 FF 00 00 00 FF 00 FF 00 00 
00 00 00 00 00 00 00 00 FF FF 00 00 00 FF 00 00 
00 00 00 00 00 00 FF 00 00 FF 00 FF FF 00 00 00 
00 00 00 00 FF 00 00 FF 00 00 00 00 00 FF 00 00 
FF 00 FF FF FF FF 00 FF 00 00 00 FF FF 00 00 FF 
00 00 00 00 00 00 FF 00 FF 00 00 00 00 FF FF 00 
00 00 00 FF 00 00 00 00 FF 00 00 00 00 00 00 00 
00 00 FF 00 00 FF FF 00 FF 00 00 FF 00 00 FF 00 
00 FF 00 00 00 FF 00 00 FF FF FF FF FF 00 00 FF 
00 FF 00 00 00 00 00 00 FF 00 00 00 FF FF FF 00 
FF FF 00 00 00 FF 00 00 00 00 FF 00 00 00 00 FF 
00 FF FF FF 00 00 FF 00 00 FF 00 00 00 FF 00 00 
00 00 FF 00 FF 00 00 00 00 00 FF 00 00 FF 00 00 
00 FF 00 00 FF 00 FF 00 00 FF FF FF FF 00 00 00 
00 FF 00 00 FF 00 00 FF 00 00 00 00 FF 00 00 00 
00 FF 00 00 00 00 00 00 00 00 00 FF 00 FF 00 00 
00 00 00 00 FF FF 00 00 FF 00 00 00 00 00 00 00 
00 FF 00 FF 00 FF 00 FF 00 00 FF 00 FF FF FF 00 
00 00 00 00 00 00 00 FF 00 00 00 FF 00 FF FF 00 
FF FF 00 00 FF 00 00 00 00 00 FF 00 00 FF 00 FF 
00 00 FF 00 00 FF 00 FF FF 00 00 00 FF 00 00 00 
00 00 00 00 FF 00 FF 00 FF 00 00 00 00 00 00 00 
FF 00 00 FF 00 FF 00 00 FF 00 00 00 00 00 FF 00 
FF FF FF 00 00 00 00 00 FF FF 00 00 00 00 00 00 
00 FF FF 00 00 00 00 00 00 00 FF 00 00 00 00 00 
FF 00 00 00 00 00 00 00 00 00 00 00 FF FF 00 FF 
FF 00 00 00 00 FF 00 FF 00 00 00 00 FF FF 00 FF 
FF 00 00 00 00 00 FF 00 00 00 FF 00 FF 00 00 FF 
00 FF FF FF 00 FF 00 FF 00 FF 00 00 00 00 00 00 
00 00 00 00 00 FF 00 FF 00 00 00 00 00 00 00 FF 
FF 00 00 00 FF 00 FF 00 00 00 FF FF 00 00 00 00 
00 00 00 00 00 00 00 00 00 00 00 FF FF 00 00 00 
FF 00 00 00 FF 00 FF 00 00 00 FF 00 00 00 FF 00 
00 00 FF FF 00 FF 00 FF 00 00 00 FF FF FF 00 FF 
00 00 00 00 00 00 00 FF FF 00 00 00 00 FF 00 00 
FF 00 00 FF 00 00 FF 00 00 00 00 00 FF 00 FF 00 
00 00 00 00 00 00 FF 00 00 FF 00 00 00 00 00 00 
00 00 00 FF 00 FF 00 00 00 00 FF FF 00 00 FF 00 
FF 00 FF 00 00 FF 00 FF 00 00 00 FF FF 00 FF 00 
00 FF 00 00 FF FF 00 00 00 FF 00 00 00 00 00 00 
00 00 00 FF FF 00 00 00 00 00 FF FF 00 00 00 00 
00 00 00 FF 00 FF 00 00 FF 00 FF FF 00 00 00 00 
00 00 FF 00 FF FF 00 FF 00 00 00 00 00 FF FF 00 
00 00 FF 00 00 00 00 FF 00 00 FF 00 00 FF 00 00 
00 00 FF FF 00 00 FF FF 00 00 00 FF 00 00 FF 00 
00 00 00 00 FF FF 00 00 FF 00 00 FF FF 00 00 00 
FF FF 00 00 00 00 00 00 00 00 00 00 00 FF 00 00 
00 FF FF FF 00 00 FF 00 FF 00 00 00 00 00 00 00 
00 00 00 00 FF 00 00 FF 00 00 FF 00 FF 00 FF FF 
FF FF 00 00 00 00 FF FF 00 FF 00 00 00 00 00 00 
00 00 FF 00 00 FF 00 00 00 FF 00 00 00 FF 00 00 
00 FF 00 00 00 00 00 00 FF 00 00 00 FF 00 FF 00 
00 00 00 00 00 FF 00 00 00 00 FF FF 00 00 FF 00 
FF 00 FF 00 FF FF FF FF 00 FF 00 FF 00 FF FF 00 
00 00 00 00 FF FF FF 00 00 00 FF FF 00 FF 00 00 
00 00 00 00 FF FF 00 00 00 00 FF 00 FF FF FF 00 
FF FF FF FF FF 00 00 FF 00 00 00 00 00 FF FF 00 
00 FF FF 00 00 00 00 FF 00 FF 00 00 FF 00 00 00 
00 00 00 00 00 00 00 FF 00 FF 00 00 00 00 00 FF 
00 00 00 00 FF 00 FF 00 00 00 00 FF 00 FF 00 00 
00 00 00 FF 00 00 00 00 FF 00 FF 00 FF FF FF 00 
FF FF 00 00 00 00 00 00 FF 00 00 00 00 FF 00 00 
00 00 00 FF FF 00 00 00 00 00 FF 00 00 00 00 FF 
00 00 00 00 FF 00 00 FF FF FF 00 00 00 FF 00 FF 
00 FF 00 00 00 FF FF 00 00 00 FF 00 00 00 00 FF 
00 FF 00 FF 00 00 00 00 00 00 00 00 00 00 FF 00 
00 00 00 00 FF 00 FF 00 FF 00 00 00 00 00 00 00 
00 FF 00 FF 00 FF 00 00 FF FF 00 FF 00 00 00 00 
FF 00 00 FF 00 FF 00 00 00 FF 00 00 00 FF 00 00 
00 00 00 00 00 00 00 FF 00 FF 00 00 00 00 00 00 
FF FF 00 00 00 00 00 00 00 00 FF 00 00 00 00 FF 
00 00 FF 00 00 00 FF FF 00 00 00 00 00 FF 00 00 
00 00 00 FF FF 00 00 FF 00 FF 00 00 00 00 00 00 
FF 00 00 00 00 00 FF 00 00 FF 00 00 00 FF 00 00 
FF FF 00 00 00 00 00 00 FF 00 FF 00 00 00 00 00 
